[PAD]
[UNK]
[START]
[END]
[SEP]
%
(
)
*
+
-
.
/
0
1
2
3
4
5
6
7
8
9
:
;
=
[
]
_
a
b
c
d
e
f
g
h
i
j
k
l
m
n
o
p
q
r
s
t
u
v
w
x
y
z
~
sep
xml
text
application
no
localhost
cache
deflate
gzip
http
utf
8080
null
like
html
en
close
compatible
gecko
image
jsessionid
khtml
konqueror
linux
mozilla
plain
png
xhtml
tienda1
jsp
publico
get
anom
norm
form
urlencoded
www
post
registro
miembros
editar
anadir
autenticar
b1
modo
nombre
pagar
login
entrar
2c
imagenes
ciudad
registrar
provincia
password
apellidos
direccion
dni
cp
email
ntc
precio
carrito
id
vaciar
##0
gif
##8
##2
##6
##4
##7
##9
27
##3
##1
##5
2f
al
f1adir
cantidad
remember
pwd
insertar
global
de
##a
jpg
caracteristicas
270
##e
credenciales
incorrectas
##d
b2
errormsg
##c
f3n
##f
##b
logo
on
calle
39
confirmar
##s
index
off
pasar
por
9090
caja
put
3d
248
74
29
##o
2574
67
250
252
rioja
3b
85
247
100
38
43
manchego
vino
71
251
2563
259
22
257
##r
queso
68
la
260
3e
249
253
3c
255
258
75
ib
jam
254
256
256f
asf
wide
72
263
e9rico
242
245
262
##n
2569
2565
61
244
##l
cookie
253a
266
261
62
243
265
246
241
33
com
264
60
17
##t
63
castro
3a0
3a15
3bwaitfor
delay
css
estilos
ida
2btamper
salir
menum
creditos
titulo
zarauz
del
nuestratierra
fotos
ogono
productos
##40
64
cmenbul
59
##20
##i
267
##y
271
##68
##00
240
##24
2fn
##60
##48
250aset
##04
239
##28
253f
268
##08
##84
##64
##69
b2a
269
238
65
errormsga
##80
##16
old
##88
##41
##36
21
##29
##44
237
2529
##32
2561
b1a
##81
##33
##96
##06
##12
252f
##61
##45
##92
##52
41
66
##89
##25
70
##65
##49
##66
##22
##05
##76
##73
##42
##21
##30
##72
58
##13
##46
##78
##09
inc
235
##56
##90
253c
253e
##85
##26
##01
##34
##86
##70
##g
##82
##43
250d
bak
##47
##50
##98
##62
##m
##94
##97
##da
##10
##03
##53
##74
253d1041264011025374727
##07
##57
##93
46
73
##17
##18
##54
##14
##63
##67
2570
34
##38
##35
##23
##31
##02
##58
##z
2573
##51
252e
256e
##87
236
san
##91
##15
##39
275
##59
273
##77
##83
##95
44
##37
##79
69
##99
##h
##19
##71
3f
modoa
##27
##75
##11
2fscript
3cscript
2522
274
18
57
f1a
eda
277
23exec
cmd
##55
##u
2527
234
2b
##es
##ia
231
##ta
272
##p
##ca
##k
4861362529278789730
2572
6909030637832563290
256b
256c
256d
org
77
28
40
precioa
##x
any
76
##ra
26
burgos
and
##do
##v
##er
252fscript
253cscript
253ealert
##j
##na
##w
232
parosproxy
221
2528
233
253d5765205567234876235
##te
3ealert
##io
279
280
281
282
25
56
13
27a
barcelona
##la
e9
salamanca
10
252b
12
guadalajara
78
2522background
from
zaragoza
253d
229
3d12312312
username
santa
3fh
f3
2564
2567
3fa
3fc
nombrea
2568
##on
##ce
logina
los
##in
2575
276
3fd
11
##ar
278
palencia
##no
madrid
valencia
teruel
##ll
el
zamora
##q
e1n
3fb
ed
##sa
##el
e0
##to
asp
##ba
3fg
##ro
c1vila
230
valladolid
segovia
edn
cuenca
le
lleida
##ea
##de
##2a
navarra
java
##en
37
3ff
e9s
girona
e9n
##9a
##as
##is
toledo
##an
pl
55
42
##5a
sant
291
bin
bob
f1o
##6a
##be
##ff
27injected
param
283
##fe
299
3fe
81
##3f
soria
7c
82
##ga
juan
tarragona
##7a
##e2
##0a
2540
313
##os
##co
##ed
2528paros
286
287
##ee
##lo
80
drop
e1ceres
##3e
paros
2522paros
253b
##ad
##fa
309
badajoz
datos
select
table
usuarios
where
##3d
##le
228
45
plza
##2e
##c3
alicante
##7b
302
##0e
22archivo
23include
28paros
3a
file
secreto
##c0
##e0
##0f
22rm
2500
2fetc
2fpasswd
3bcat
huesca
las
rf
##8e
##f3
##ma
granada
##7e
2520
285
##8a
##a8
22paros
2527paros
2528javascript
253aalert
253aurl
26id
2bstyle
3d2
##3b
##4f
##et
##7d
##c5
##c6
##man
308
##9b
##d9
27http
2fcgi
2fcookiesteal
2fhacker
3edocument
cgi
document
example
location
##c1
##aa
##cb
##e7
##a1
##d7
##e5
##bc
27or
4040
sessionid
##go
79
##1a
##b9
e7a
##cc
##e4
##ina
##8c
##db
##f6
pla
##1f
##6e
##bd
##8d
##b2
##b3
##b6
##cd
##e9
##ef
22dir
2562
257c
##3a
##6b
##7f
319
83
##a4
##ae
##b7
##jo
297
3d1
##a0
##1b
##d0
##f2
##so
2578
327
edo
pwda
##1d
##7c
##c2
##f5
##ne
##d5
##va
250a
remembera
samples
##4a
##b8
##c9
88
##ac
##ec
98
##b0
##dc
##ie
##za
91
##cf
##dd
118
2520style
27paros
28javascript
3aalert
3aurl
iissamples
227
pe
##c4
##d1
##fd
306
##bb
##bf
##or
323
48
coru
##b1
##d6
##dor
##f4
##mente
22ls
252d
292
303
##2f
##4d
##e6
14
##3c
##6f
##d8
##e1
##lla
284
293
294
84
##2c
##5f
##d2
real
##1c
##1e
##les
##af
##b4
##d3
##b5
##6c
##8b
##ab
##c8
##fc
##re
##f0
##ri
86
ja
##0c
##5e
##f7
cantidada
##9e
##a2
##f1
130
304
314
##c7
##ch
delete
users
##8f
15
##d4
##fb
89
##e3
288
307
325
##a3
##eb
290
47
##0b
##0d
##4c
carrer
ntca
plaza
##a5
##ino
htm
##any
119
310
90
cpa
emaila
##5c
##5d
f1as
##zo
52
54
dnia
##f9
92
almer
##4b
##4e
##9d
113
129
93
administrator
apellidosa
cantabria
cfide
cfm
direcciona
e1
##li
321
94
mar
passworda
120
24
##ria
289
295
296
316
ciudada
##6d
##nes
##ton
298
##2b
114
castell
##a6
##a9
126
87
112
121
226
do
nsf
provinciaa
##5b
##f8
117
141
20
30
51
cruz
e1laga
##2d
##9f
##e8
##era
131
ca
ourense
##ng
115
##al
##df
139
32
##9c
##il
##ni
133
50
##ner
asturias
vti
##nte
##se
##ti
95
97
avenida
jose
##ell
##ja
2bo
301
328
albacete
mu
##cio
324
333
49
53
105
##nt
135
##llo
##que
##mo
35
maria
##ci
##ley
##ny
19
312
ques
##car
128
23
##ero
111
122
144
340
huelva
##a7
##ka
##son
106
31
96
ar
##nda
##us
127
##ez
##ter
104
225
sdk
147
305
335
sevilla
138
f3rdoba
sierra
##ko
ba
##ura
125
123
102
110
132
camino
fazcoa
guip
##ir
116
##ana
##rio
107
99
examples
f3s
sol
##ica
##ve
124
36
villanueva
##cia
##tt
315
318
320
##ros
143
149
317
tr
##ble
##mar
##rd
137
223
322
##ey
##res
##rt
332
ro
torre
##ck
103
27o
3frioja
##ger
##iro
##ya
109
197
f1
##ic
edas
pedro
rey
rio
vizcaya
##paros
108
carretera
carritoany
virgen
travesia
##des
##ico
##illa
pvt
##di
ma
##sessionid
28illes
baleares
francisco
puerto
valle
##ol
yu
##eta
##me
330
doctor
luis
146
in
nu
##ena
##ler
##pa
142
148
don
fuente
io
sh
##sta
16
222
miguel
##and
##cho
##ora
145
antonio
gl
set
##ada
##ola
337
cf
so
##lia
##ls
150
184
193
e9ric
gr
##der
es
##ella
cat
co
e8s
fa
mart
##vo
##zar
311
336
339
cti
ec
py
##iz
136
151
an
nc
passatge
##las
##osa
134
199
300
carlos
tel
##berg
##cer
##ine
##ke
##lar
101
155
159
170
177
av
bu
f1ez
##un
334
c1lava
mc
pontevedra
##ela
##ira
##ul
##ur
169
179
331
345
352
avinguda
casas
cl
cnf
webapp
##bo
##eo
##mann
##rdo
##th
##lin
##qu
##ser
153
185
e0s
pa
vi
##pe
##ver
189
avda
garcia
##ara
##at
##nn
##ns
##rra
can
np
reina
se
##dra
##ly
157
160
165
gg
name
pi
sj
##ado
##cha
##ida
##ing
##po
##sen
##uela
174
exampleswebapp
je
lv
pasaje
st
torres
va
vbscript
##dora
##ito
##oso
##st
htr
iisadmpwd
is
lugo
manuel
##bia
##dy
##ham
##ig
##miento
##ms
##pi
##ry
at
campo
mk
paseo
pr
##ador
##ita
##mer
162
182
az
##bob
##it
##net
140
171
eds
sampsite
th
##cas
156
188
190
ke
##bal
##guera
##her
##iana
##ila
##ill
##ix
##ki
##lio
##ova
##ras
##set
163
178
196
329
cami
edu
incorrectasany
mil
pm
servlet
vall
##ejo
##ker
158
346
barrio
cy
eu
iq
puebla
##ari
##ber
##ent
##iel
##nd
##nera
##ot
##ran
##ron
##ud
##yo
152
187
kr
vc
##bert
##dio
##eda
##gel
##id
##jar
##tar
172
f1os
santo
urbanizacion
##ano
##das
##ian
##illo
##rera
##tel
##ves
180
gf
hk
kp
les
msadc
mx
ni
tv
##bel
##gan
##ge
##ias
##kin
##lero
##llos
##mi
224
by
campos
ch
tenerife
valverde
##am
##bar
##berto
##by
##ens
##hi
##ral
##tal
##tes
as
d3n
uk
##au
##ich
##rr
##si
350
40enlanzarote
cuesta
database
vu
webspheresamples
##dillo
##lli
##ndo
##nie
##ou
##rn
##ua
##vin
154
168
173
198
ag
cameros
cx
exair
ga
general
gu
##dura
##ers
##gen
164
183
191
338
342
aq
br
cc
da
diego
e1s
salvador
si
zr
##che
##dero
##iano
##isa
##len
##mes
##nas
##ona
##ov
##ste
##vi
167
aw
be
bn
castillo
gd
kh
li
md
mo
mq
pro
pt
sa
sy
##dia
##em
##eu
##fo
166
326
conde
leon
perez
ps
tj
vg
##ard
##ay
##bra
##fr
##ido
##ier
##je
##ling
##nza
##ong
##rs
##tero
##via
40corjet
40g
castrillo
gw
hu
incorrectasbob
kw
kz
lb
nf
pablo
sz
um
vega
zm
##248
##2k
##den
##ima
##lada
##nio
341
coop
dels
ly
passeig
sb
##144
##610
##793
##ciano
##gna
##gu
##ky
##lado
##ldo
##ts
##ue
##um
351
355
alvarez
am
bt
dz
eg
exe
ge
hn
ie
isabel
joan
martin
my
na
sn
tn
us
vicente
##366
##640
##don
##jas
##lan
##let
##nell
##nia
##qui
429
hr
lk
molinos
mw
tm
##325
##7w
##ak
##bella
##dad
##dell
##ear
##gar
##gos
##gua
##han
##lda
##mia
##quet
192
794
bf
bi
et
gi
kn
lc
mg
murcia
nom
qa
rafael
rodrigo
van
##065
##33d
##a0f
##ion
##rda
##rse
##vas
161
40ajuntamentbarcelona2
calzada
docs
pintor
ramon
web
##374
##411
##620
##653
##686
##729
##732
##aci
##az
##de6
##eja
##eros
##ges
##he
##i3
##ins
##ivo
##lon
##nca
##ney
##ston
##tor
##uer
##up
##wa
##yn
365
635
admin
af
alcalde
bj
cda
cn
dm
e1diz
fj
fr
glorieta
gs
isla
padre
poligono
sv
tc
vera
##173
##2g
##3o
##723
##art
##e61
##nto
##sca
##ss
##tti
401
40cpanelweb
cv
domingo
mobi
puente
pw
sl
##2o
##477
##bre
##cher
##dr
##encia
##ene
##eria
##ette
##ha
##idad
##ire
##kov
##leo
##lis
##rro
##tre
##tz
##una
15391
15531
40faders
40mtos
ai
andres
arriba
asia
au
camp
dll
il
lopez
ms
nr
orderparser
ronda
scripts
tools
##450
##616
##681
##777
##960
##969
##985
##ces
##fer
##field
##iga
##lah
##lba
##lina
##nco
##oli
##par
##sch
##tin
##ws
10320
10649
catalog
dd
hernandez
noel
poeta
sanchez
##02b
##042
##082
##393
##685
##708
##799
##842
##998
##9l
##bi
##dera
##edo
##eso
##gues
##ismo
##land
##lles
##lta
##mon
##ncia
##nero
##om
##tivo
##ueta
##ut
##vio
##ye
##zi
15801
19119
1979
20001
220
40alfombra
40hipermadrid
6851
7625
cervera
di
duero
fas
gob
gran
ic
jm
josep
kg
lorenzo
mh
ml
mm
montijo
nl
nz
om
palmas
pg
rw
sd
tk
ve
##002
##289
##626
##674
##748
##749
##7k
##7l
##869
##904
##ao
##ete
##ies
##ista
##ks
##lera
##ncio
##nis
##sh
##vel
181
22951
421
8157
alcal
dbsamp
garc
info
mv
rodriguez
##083
##1x
##3q
##421
##4s
##520
##565
##5m
##606
##660
##841
##914
##a0c
##bas
##bin
##ek
##elo
##gal
##gas
##guer
##har
##iva
##lt
##nga
##rero
##sio
##tte
##ys
17463
18611
1885
19133
213
343
40automovilesalhambra
40cincocolores
40ropadegolf
40sms24h
784
819
8223
alba
angel
blas
canal
cg
codigo
dj
fernandez
font
fresno
gy
isapi
jobs
ki
lugar
mayor
me
miquel
quintana
ribera
sr
tl
val
villa
ye
##043
##0p
##100
##127
##14f
##177
##30a
##3c7
##435
##4d2
##5o
##687
##691
##872
##882
##8r
##9d5
##afa
##c99
##jan
##min
##ndra
##riz
##sas
##sc
##tan
##teo
##tta
13e
19490
26321
40cortinasartesol
40sayuela
cu
felipe
gomez
ir
morales
ws
zw
##04a
##0h
##1j
##200
##278
##3y
##480
##510
##5r
##647
##6o
##6z
##743
##789
##7r
##822
##889
##91b
##aya
##c67
##ccd
##cion
##cs
##dos
##ente
##erra
##f76
##gi
##gui
##igo
##imiento
##inda
##ith
##llas
##los
##ow
##oy
##pp
##rea
##ski
##sto
##tos
##ui
##und
##ven
##vic
##vis
##yne
14859
15129
16315
1689
19278
195
24855
3183
344
361
40elsentidodelavida
40enla
40hojainformativas
412
4c
5031
8167
824
9791
aero
arroyo
bb
bg
caba
carritobob
e7
facar
im
ky
lara
manzanares
mont
monte
mz
nardo
palacios
pastor
roca
santib
sanz
villar
##023
##027
##370
##3v
##4a9
##53f
##639
##6r
##736
##74f
##80a
##848
##909
##932
##9r
##a79
##c14
##c86
##cal
##d1f
##de8
##eca
##eto
##fb6
##ord
##ote
##rg
##rv
##ster
##val
##van
##vil
##wen
10189
353
40encuentrodominios
40lawn
40x2
40zarahealth
411
777
8409
ae
cala
callejon
carmen
gochez
htmlsamp
medina
pozo
tw
wf
##118
##19a
##298
##2ca
##2r
##2x
##351
##375
##3da
##430
##549
##641
##67f
##683
##6ce
##713
##71f
##818
##883
##8ff
##928
##954
##b2c
##b51
##c42
##ced
##cel
##cos
##dal
##dina
##eck
##ejos
##elle
##ett
##ise
##lman
##more
##oa
##oria
##rada
##ray
##rell
##rey
##rie
##ris
##rta
##ru
##ses
##ssa
##ux
##uz
##var
##villa
##yle
09390
10015
10127
1027
10295
10351
10491
10733
10771
11041
11069
11237
1129
11331
11387
11443
11471
11527
11555
11601
11713
11723
11741
11751
11769
11779
11807
11825
11863
11891
11919
1195
12021
12049
12059
12087
12115
1213
12199
12227
1223
12255
12273
12329
12395
1251
12777
1279
13011
13141
13235
1325
13319
13393
13477
1353
13599
13627
13701
13767
13785
13813
14009
14019
1409
14103
14261
14289
14345
14355
14373
14439
14551
14663
14681
14719
14747
1475
14775
14831
14887
14961
14989
15073
15083
15101
15195
15241
15297
1531
15353
15447
15465
15493
15549
15587
15605
15661
15699
15717
15783
15839
15885
15923
15941
15979
15997
16025
16063
16371
16389
16455
16511
16557
1661
16651
16669
1671
16809
16847
16903
16977
1699
17071
17089
17211
17229
1727
17285
17323
17341
17369
17407
17481
17519
17537
17575
17649
17715
17733
17771
17939
17985
18097
1811
18153
18209
18237
18275
18293
18415
18527
18583
18629
18667
18741
18769
18807
18825
18863
18881
18919
18975
18993
19059
19077
19189
19367
19395
194
19413
19535
19591
1969
19703
19731
19777
19787
19805
19833
19889
19917
1any
20179
20207
20291
2035
20365
20393
20421
20477
20515
2053
20533
20571
20589
2063
20683
20701
20767
20785
2081
20897
2091
20925
20963
21019
21121
21177
21233
21317
21355
21373
21411
21429
21495
21551
21709
21747
21765
21793
21849
21971
21989
22045
22083
22157
22195
22213
22307
22363
22381
22419
22439
22447
22465
22503
22521
22671
22689
22717
22755
22811
2287
22895
22913
22979
22997
23081
23119
23137
2315
23175
23305
23343
23417
2343
23455
23539
23557
23669
23735
23763
23837
23847
23865
23921
23959
23977
24043
24061
24099
24211
24267
24285
24323
24435
24463
24491
24509
24547
24649
24687
2473
24799
24817
24827
24883
24957
2707
2893
2any
2be
2fa
3061
3145
31495
3173
3229
3257
3379
3547
3575
3603
3631
3677
37621
3827
4023
40drae2
40easyviaggio
40tantomontamontatanto
40wdsl
4135
4275
4303
4489
4517
4639
4713
4779
4807
513
5133
5161
5199
5227
5245
5255
5273
5283
5339
5385
541
5563
5665
5675
569
5833
5973
6207
6263
6319
6431
6459
6561
663
6673
6683
6739
6879
6953
7075
7177
719
7271
7317
7373
7457
7485
7513
7569
7691
775
8045
8073
8111
8195
8307
8391
8717
8745
8755
8811
8997
9193
9277
9399
9417
9567
9623
9725
9753
9809
9819
9837
9865
9875
9931
9949
9977
aragon
arco
bh
bs
carritoparos
cerrato
ci
e9jar
eh
er
espinosa
estrella
f1al
gov
huerta
ls
luna
mari
montes
mr
murillo
oca
parra
praza
rueda
td
tz
valls
vila
##01d
##057
##073
##135
##138
##143
##178
##186
##20a
##20c
##226
##27b
##410
##528
##52f
##61e
##646
##710
##741
##752
##762
##768
##770
##7a6
##801
##820
##832
##849
##884
##935
##937
##9ce
##ader
##b5b
##cad
##cbc
##cci
##d62
##dcf
##ei
##ford
##horas
##ile
##jera
##oni
##reda
##rna
##servlet
##smo
##tera
##tia
16118
34309
40pintandomucho
alfonso
bergu
bw
calatrava
cerro
e1nsito
e1ramo
f1oz
federico
gq
lima
logon
net
planelles
santander
soto
tormes
travel
wei
##032
##044
##054
##074
##0d3
##0fa
##16b
##1t
##216
##24e
##38f
##39a
##3n
##468
##534
##550
##61c
##649
##667
##682
##698
##6t
##712
##720
##758
##776
##786
##790
##795
##814
##9cf
##9y
##ah
##ante
##aro
##ate
##ave
##b19
##b8c
##bio
##bs
##burn
##c36
##c63
##ce7
##chi
##cina
##d4c
##da4
##e34
##eas
##ecer
##ele
##eno
##eres
##ert
##esa
##f1f
##f67
##gh
##gs
##hn
##hu
##ib
##ice
##ini
##jada
##lares
##ld
##lle
##lor
##men
##nce
##nni
##nova
##nta
##rado
##rco
##ric
##rona
##s8
##sal
##sky
##tino
##tr
##uno
##uso
##vsky
##wan
##win
16415
16812
17538
186
217
218
22415
24921
27en
40a
40aadsl
40ajuntamentbarcelona20
40cafedeteatro
40clichotel
40elcarritodelacompra
40rocofer
40yiutuve
4825
636
6838
7495
8083
ad
agueda
aguilar
alc
ax
blanco
bo
bureba
cd
ce
ck
cz
ee
esteban
f3nico
fernando
fi
gracia
ht
ii
jal
jorge
juana
marcos
marina
marques
oficial
parque
pilar
puerta
sarri
tarciano
tera
vn
yago
##008
##025
##046
##086
##08e
##0s
##110
##120
##15c
##1f4
##1m
##1y
##221
##254
##301
##311
##320
##3ed
##400
##406
##408
##458
##472
##512
##561
##581
##585
##5c2
##600
##668
##746
##7c0
##7e1
##812
##824
##972
##996
##9b1
##9fd
##a7d
##ae9
##aja
##aldo
##bdb
##c0c
##cf2
##dea
##e1b
##e32
##e3c
##e93
##enilla
##f09
##f2d
##ff5
##hard
##mosa
##mp
##ndel
##nkel
##ock
##og
##r5
##rb
##tle
##ty
##uc
##veros
12300
13b
1510
15338
16807
18518
22770
29551
33775
368
40alcantarapartners
40castigadas
6h
ao
applications
benito
bm
f1aga
f1ar
isidro
jo
merced
nelma
orion
picabea
pinar
robles
sebastian
segarra
ta
tf
vilanova
##000
##031
##064
##085
##088
##0b0
##0r
##0y
##0z
##108
##160
##165
##1d5
##1r
##239
##2v
##340
##352
##388
##3b9
##3d5
##3de
##3g
##42e
##4v
##506
##54a
##556
##55e
##57a
##599
##613
##638
##63a
##671
##6n
##715
##717
##792
##79f
##7ef
##7f3
##7m
##7n
##810
##865
##8e3
##8j
##907
##926
##930
##9b8
##9e5
##aa2
##ade
##ados
##af0
##ago
##ales
##anos
##ant
##b3f
##br
##c76
##c82
##cilla
##cker
##cu
##d48
##d88
##dado
##dbe
##e06
##e5a
##e9a
##ee3
##ee8
##eld
##etti
##fc6
##fredo
##gl
##ho
##i5
##iol
##iola
##jano
##n7
##nau
##nde
##ob
##off
##oh
##pes
##quer
##quera
##rar
##rard
##rian
##rno
##rtes
##rz
##s6
##ska
##tch
##ther
##tiva
##uar
##uk
##uta
##vier
##yer
11330
12230
12f
13326
15863
15881
16122
16193
16235
16707
17143
176
17853
17857
18230
19144
19209
19294
20217
203
21340
22650
2352
2361
23657
24367
2h
31229
3796
4024htranslations
40atorre
40bijoubijoudiferente
40cajucar
40cirugiaplasticacordoba
40fotoseroticas
40lola
40prensahp
40sanchezgordo
40santacruzdelvoto
40stainless
40surcosur
40telogis
40travelzone
40xavipetit
4344
4373
4538
4965
5003
5021
5384
5607
607
6729
6c
6f
7436
7931
7e
8460
8744
8789
9014
abajo
borges
cardenal
carritosessionid
corominas
cr
dfault
entrarany
esgueva
f1ada
ferr
fm
fuentes
funngames
guadiana
hornillos
ian
incorrectassessionid
increment
industrial
int
it
joaquin
jos
km
laguna
lihue
lozana
lt
lutscht
martinez
mp
paloma
ph
pico
pk
port
portal
rambla
residencial
santiago
sg
son
tg
to
torrent
tt
virma
zabala
##01a
##036
##07a
##084
##0a5
##134
##145
##16d
##174
##183
##194
##1d8
##1e9
##25a
##268
##269
##30e
##367
##3a2
##470
##498
##513
##598
##5d2
##5d9
##608
##652
##68f
##6m
##782
##785
##796
##797
##811
##816
##833
##837
##840
##844
##84f
##873
##970
##973
##988
##993
##9z
##a00
##a52
##a96
##amiento
##b1d
##bet
##ceda
##db7
##dbd
##dfe
##e3a
##ebd
##ercio
##f21
##f6d
##f95
##fc8
##gue
##guez
##lear
##llar
##mie
##mira
##ondo
##op
##pia
##rick
##rin
##sk
##tion
##uez
##uzzi
##well
##zer
10828
21240
219
24745
25125
26339
28191
33909
34191
371
40audiosat
40fernandosoto
40gesautonomos
40miami
40sitienesunawebtienesunnegocio
40zarasalud
567
623
8459
9a
amor
aregall
bea
beach
cobo
eulalia
garros
gregorio
molt
mt
museum
pf
silva
villalba
zurita
##001
##006
##007
##033
##066
##0a3
##0ff
##0o
##10f
##12a
##130
##13a
##142
##17c
##1dd
##1fd
##1n
##217
##2h
##2t
##322
##349
##38c
##394
##3b8
##3h
##3m
##409
##40e
##443
##48a
##48e
##493
##4x
##542
##58c
##612
##63c
##63e
##66b
##677
##678
##69c
##6c7
##6f9
##714
##772
##77a
##780
##803
##819
##864
##87b
##8a2
##945
##961
##967
##974
##9a5
##9n
##a26
##alo
##amente
##anza
##arte
##asa
##b0c
##b29
##b2d
##b61
##bac
##bach
##bc2
##bea
##bfe
##c4c
##cena
##cero
##cff
##d14
##d23
##d63
##d84
##e44
##e9d
##ec0
##elli
##encio
##er8
##est
##ester
##eva
##f07
##f5d
##f99
##ffb
##gado
##guero
##ide
##ik
##iley
##ilia
##im
##inia
##int
##ios
##ioso
##ip
##itia
##juela
##kes
##laya
##lee
##lie
##line
##ller
##lls
##mas
##mina
##n5
##nen
##nette
##nka
##nou
##nya
##ons
##orn
##ort
##per
##quin
##rel
##riana
##rva
##sar
##seca
##t0
##tana
##tas
##tica
##tico
##ub
##uda
##ujeres
##uo
##ure
##uri
##uro
##uy
##ventura
##vino
##way
##wer
##wick
##xa
##yen
##ze
0093197595343977
1007
10135
10160
10162
10261
10616
1073
10817
10883
11630
11639
12170
12489
15146
15317
16216
1626
1633
16336
16340
16417
16452
16710
16855
17001
17137
17249
175
17708
17743
17770
18132
18300
18517
18555
18699
19245
19275
19390
1g
2025
204
20577
2114
21320
21610
21890
2231
22362
22587
22792
22896
2399
2427
24272
2445
24530
24735
24915
2714
2794
2949
3089
3228
3295
34469
3641
3817
3845
4005
407horas
40ajuntamentdebarcelona20
40alquilerpantallasled
40am
40artesania
40b
40bacoespecialselecci
40cubiertoscbb
40deuxmanagement
40discon
40evelin
40forohh
40gaudio
40grandesinventos
40hostrofessional
40introito
40juguetespersonales
40madrid2012
40pavimentosalagon
40privatebanking
40professionalhost
40promotorareina
40ringringrent
40sierradealcaraz
40softstylestudio
40soyandaluz
40tintasultravioleta
40unidadesdeventilacion
4179
4975
5013
5059
5115
540
5562
562
5756
5823
5966
6477
6721
6749
6963
6991
7427
806
8166
8559
8d
909
943
9717
9874
adelqui
adm
alameda
albornoz
alegr
arag
arnold
baixada
bigorra
bon
bv
bz
castany
catalan
confirmarany
correos
correspondencia
curell
dacil
delgados
e1bano
escritor
escultor
f1afiel
feliciano
fuerte
gh
gilabert
gn
gonzalez
herrera
hibridos
ignacio
llobet
log
lr
lu
marcelino
mas
masia
mata
mi
mn
nava
navas
ne
ng
nieva
nuevo
periodista
pineda
pola
portillo
portugal
ribes
romera
romero
ruiz
segura
sign
telegrafos
teresa
##022
##037
##04c
##07d
##087
##093
##10b
##147
##16e
##171
##181
##1b0
##1f8
##208
##209
##21f
##24d
##252
##2a6
##2b2
##34b
##38b
##391
##438
##463
##483
##4ce
##503
##507
##52b
##52e
##546
##573
##582
##5n
##605
##60d
##623
##62b
##64b
##662
##67a
##690
##697
##6dc
##700
##704
##716
##734
##784
##788
##7ab
##7c4
##7db
##806
##81e
##895
##89d
##920
##921
##925
##958
##968
##976
##978
##982
##989
##98d
##9cc
##9eb
##9ee
##a54
##a88
##abf
##af1
##afb
##aff
##ando
##b49
##b86
##bbe
##bd9
##c70
##c7a
##ca5
##cd1
##chel
##col
##d7c
##d9a
##dac
##dan
##dc3
##dilla
##due
##e2e
##e4c
##e62
##e75
##e96
##eaf
##ep
##f25
##f2e
##f35
##fd3
##fe1
##feb
##fra
##gre
##ial
##ijo
##ika
##iliano
##illas
##mero
##nar
##ngel
##nillas
##nos
##r8
##rull
##t5
##ubilla
##yama
##yi
10g
16316
18370
2026
24174
25135
27739
29711
3010
31013
31133
33783
34349
34447
34477
34757
35543
366
369
374
403
404
40926
40ankawaelda
40conac
40cursosenlaplaya
40ilusionarium
40santcugatpisos
437
438
48220
49372725m
597
625
628
826
ac
alhama
audi
batalla
beatriz
cristo
dios
forn
mobley
oliva
par
sim
singlesamples
##034
##03a
##068
##069
##08a
##0b9
##0e2
##103
##106
##115
##124
##13f
##168
##179
##1d2
##1f5
##1l
##1w
##211
##24a
##263
##294
##2z
##309
##31d
##341
##34d
##381
##39c
##39f
##3a6
##3z
##416
##494
##497
##4a3
##4a7
##4e2
##4f7
##4o
##4r
##526
##53d
##566
##56f
##58b
##5a2
##5aa
##603
##624
##665
##670
##694
##699
##6a7
##6be
##6c4
##6h
##6j
##6x
##6y
##72e
##74c
##75c
##771
##779
##794
##7a1
##7h
##7s
##7v
##808
##828
##83e
##885
##888
##892
##894
##8ab
##8c9
##8f4
##8f9
##8s
##8x
##90c
##936
##950
##977
##992
##9ae
##9f4
##9s
##a34
##a45
##a4f
##a8c
##ab6
##aco
##ae2
##af3
##amo
##ardo
##ato
##atos
##b7b
##b7c
##bb2
##bfd
##bina
##bir
##bot
##c13
##c4b
##c51
##c69
##c8a
##c94
##caf
##cano
##cea
##cef
##cela
##ciones
##cola
##con
##ctor
##d22
##d6c
##d79
##da7
##diano
##doc
##dona
##e49
##e8c
##ech
##edb
##ef3
##f10
##f14
##f4d
##f64
##f71
##f78
##f7c
##f81
##f89
##gold
##gon
##hil
##i4
##ick
##ieros
##inar
##ines
##izo
##kie
##l0
##lco
##leen
##leta
##lga
##liano
##lock
##lyn
##mada
##mino
##monte
##moto
##ndy
##nel
##oc
##ping
##r4
##rdi
##red
##redo
##rena
##rer
##rina
##rla
##rol
##seco
##sey
##sia
##ssar
##ssier
##ula
##vie
##ward
##zuela
08281
10137
10145
1017
10173
10239
10361
10369
10390
10397
10435
1045
10459
10537
10641
1065
10659
1066
10669
10670
10687
10781
10782
10809
10810
10837
10911
10939
1101
11023
11153
11191
1139
11397
11405
11425
11433
11573
11622
11929
11930
11937
11985
11986
11d
11f
12406
12423
12497
12525
12581
12609
12637
12685
12686
12693
12741
12742
12759
12770
12833
12853
12854
12h
13021
13022
13029
13123
13151
1328
13281
13302
13309
13337
1335
13386
13414
13421
13459
1346
13470
13533
13561
13617
13637
13638
13645
13665
13666
13673
13711
1373
13795
13805
13806
13823
13834
13851
13907
13935
13991
13c
13g
1408
14113
14114
14121
14142
14205
14225
14226
14233
14299
14327
1437
14541
14589
14590
14607
14635
14765
14793
14860
14933
15027
15111
15124
15167
15185
15223
15234
15279
15363
15373
15381
15419
15430
15437
15475
1549
15513
15514
15552
15559
15570
15577
15615
15626
15671
15681
15682
15689
15727
15737
15738
15745
15829
15867
1587
15961
15962
15969
16007
16053
16091
16101
16102
16109
16147
1615
16157
16158
16165
16203
16214
16221
16236
16241
16242
16270
16287
16297
16298
16305
16343
1635
16354
16361
16399
16409
16410
16411
1643
16437
16493
16494
16501
16539
16550
16577
16582
16585
16641
16679
16689
16697
16717
16718
16773
16774
16830
16837
16875
16893
16931
16942
16949
16987
16997
17005
17053
17054
17109
17110
17121
17127
17136
17138
17145
17193
17194
17201
17295
17305
17313
17351
17362
17425
1745
17501
17502
17509
17557
17565
17603
17613
17614
17621
17659
17669
17670
17677
17707
17751
17754
17761
17799
17809
17810
17817
17833
17837
17838
17845
17883
17893
17894
17901
17957
17977
17995
18006
18011
18013
18033
18079
18125
18163
18174
18181
18210
18219
1822
18229
18258
18265
18303
18314
18321
18359
18377
18397
18398
18405
18443
18461
18499
18509
18510
18513
18566
18573
18649
18650
1867
18685
18723
18779
18789
18790
18797
18835
18845
18846
18853
18891
18902
18937
19031
19041
19070
19097
19098
19112
19115
19143
19153
19154
19161
19192
19199
19217
19227
19237
19281
19283
19301
19311
19312
19327
19350
19357
19433
19434
19479
19497
19573
19629
19647
19658
19665
19685
19721
19815
19825
19826
19871
19927
19945
19965
19966
1c
20021
20039
20049
20050
20057
20106
20113
20151
20162
20169
20225
20263
20273
20274
20281
20319
20330
20403
20414
20442
20449
20487
20497
20498
20505
20543
20554
20561
20599
20609
20665
20666
20711
20721
20722
20729
20861
20869
20907
20918
20946
20953
21009
21047
21058
21065
21103
21141
21187
21197
21198
21205
21243
21253
21254
21261
21327
21345
21383
21394
21401
21439
21467
21477
21478
21485
21523
21534
21541
21579
21589
21597
21635
21710
21719
21729
21730
21737
21775
21813
21814
21877
21915
21925
21926
21933
21953
21954
22009
22027
22065
22066
22093
22094
22101
22121
2213
22139
22177
22190
22194
22251
22261
22262
22269
22346
22353
22401
22416
22485
22486
22493
22531
22542
22549
22597
22605
22615
22643
22654
22699
22709
22710
22829
22849
22867
22880
22885
22923
22933
22934
22941
23007
2305
23063
23100
23102
23109
23203
23213
23214
23221
2323
23259
23277
23315
23325
23389
23427
23437
23438
23445
23483
23501
23521
23585
23623
23641
23707
23717
23725
23802
23809
23819
2382
23829
23830
23875
23886
23893
23931
23941
23942
23949
23987
23997
23998
24005
24054
24117
24170
24183
24193
24201
24239
24250
24257
24295
24305
24313
24324
24351
24361
24362
24369
24407
24425
24439
24481
24529
2455
24575
24585
24593
24613
24631
24642
24698
24705
24715
24809
2483
24845
24901
24911
24929
24967
24977
24978
25005
25006
25023
2511
2697
2781
2801
2802
2809
2830
2837
2857
2858
2875
2885
2886
2903
2913
2914
2921
2987
2997
2998
2bs
2cn
30191
3043
3071
3082
3099
3211
3221
3222
3239
3267
3313
3369
3397
3417
3418
3546
3565
3613
3621
3642
3649
3697
3698
3699
3715
373
3815
3901
3922
3950
3957
3977
3978
3985
40007tv
4013
4023horas
40943
409horas
40acch
40arroyo
40artforall
40baybay
40comerciosdeaspe
40enigmatico
40espaciopintor
40filtraciondehumos
40hispadis
40hotelestopsecret
40intercambiodeenlaces
40lamarsrl
40magritte
40mauroman
40menorca
40multasdetransito
40nutrimama
40rockefeller
40sandrasummer
40sindns
40tecnoindomo
40tiposdedrogas
40viajesnacionales
40viscotek
4117
4118
422
4237
4250
4257
4258
4265
4285
4286
4293
4313
4314
4321
439
4397
4398
4405
4433
4461
4499
4510
4537
4599
4611
4650
4667
467
4808153993761167
4853
4891
4901
4919
4930
5014
5041
5042
5049
5125
5126
514
5151
5153
5171
5217
523
533
5335
534
5357
5484
551
5525
5537
5545
5553
568
5696
5777
5815
5853
5899
590
5909
5937
5938
5955
5983
5b
6133
6134
6197
6329
6337
6357
6358
6365
6413
6414
6469
6493
6505
6543
669
6750
6771
6805
6806
6823
6839
688
6889
6890
6897
6973
6974
6g
7002
7009
7019
7047
709
7197
7225
7226
7233
729
7299
7309
7310
7327
7411
7466
7506
7523
7551
7607
7635
765
7719
7747
7758
7767
7775
7803
7831
7859
7875
7887
7915
7943
7999
7a
7b
8022
8055
8066
8099
8305
8318
8360
8401
8402
8421
8429
8430
8453
8514
8521
8542
8625
8626
8699
8821
8829
8857
887
8906
8941
8969
8989
8g
9035
9045
9046
9085
915
9157
9158
9165
9213
9269
9287
9298
9315
9390
9437
9510
9529
9606
9613
9667
9735
9746
9763
abenoza
aires
alfredo
alonso
angelo
asad
barriada
begonia
bernaus
bosco
bullones
cabrera
caridad
carmelo
carritoset
cartaya
casola
cervell
chihchie
comte
costa
cruces
dk
e9tica
e9valo
eduardo
einstein
els
emanuel
europa
f1ol
f34
faa
fal
feixas
fidalgo
funes
manzano
medio
mercado
metauten
moral
nte
paz
pedrosa
pereda
pisuerga
planells
pont
principal
quintanilla
ram
rebes
reyes
rinc
roc
roque
rosa
ru
rut
sc
segundo
sm
te
tres
ua
vahidreza
victoria
villafranca
volta
yuan
zarzosa
zurbaran
##01b
##02e
##050
##094
##0da
##0df
##0e6
##0ed
##0fc
##102
##111
##139
##13d
##155
##15b
##167
##170
##199
##1b5
##1b7
##1e6
##1ed
##206
##20b
##230
##242
##24f
##250
##25e
##27e
##285
##28e
##296
##2ad
##2db
##319
##330
##33e
##355
##358
##35a
##360
##373
##380
##385
##3fd
##40c
##420
##422
##448
##44c
##461
##479
##47b
##4ae
##4c1
##4y
##500
##509
##53e
##55a
##56e
##571
##579
##5a8
##5af
##5d1
##617
##62c
##648
##664
##675
##67b
##67e
##680
##6a0
##6d3
##6d9
##705
##724
##737
##73e
##744
##753
##755
##759
##773
##774
##778
##77d
##80b
##853
##855
##868
##86b
##871
##896
##89a
##8db
##95d
##983
##99b
##9af
##9c5
##9d4
##9e9
##a05
##a47
##ab8
##ac4
##ad0
##ai
##ama
##b42
##ba8
##bad
##bc9
##bca
##bde
##bee
##bury
##c19
##c1e
##c6c
##cara
##cat
##d36
##d50
##d53
##d5d
##d95
##da9
##daf
##devall
##dre
##dro
##e5f
##e6b
##e7e
##eb0
##ef6
##ery
##eth
##f1c
##f9b
##fea
##fee
##fila
##lho
##liana
##lma
##olo
##rce
##rte
##tley
##ucasa
##wal
##web
##wska
##zuelas
205
26133
26143
28749
28813
29127
29493
31253
31263
31383
31693
33423
33527
33693
34127
34239
34247
34485
348
34829
385
389
399
4014horas
40ajedrezconmaestros
40aprendeaestudiar
40archivodeimagenes
40barnicesuv
40botilleria
40deltamarina
40eonon
40juegois
40librodeapuntes
40suecas
40velazquezlarra
447
593
601
622
631
63154198q
7642131917731646
8080http
8112
815
835
836
9805
agua
aldea
anna
audio
barrios
bazan
bote
btr
casaramon
cinco
compres
correa
erbd
gil
ildefonso
matache
order
ponce
riu
rosario
server
src
velasco
verge
weblogic81
xmlfile
zorrilla
##01f
##03f
##04b
##063
##067
##091
##092
##0c0
##0ec
##0q
##113
##11e
##140
##163
##193
##1ad
##1e5
##1p
##1s
##202
##210
##219
##245
##255
##282
##291
##297
##299
##2a1
##2ab
##2ea
##2n
##2ra
##331
##361
##36e
##379
##37b
##38e
##39e
##3a4
##3c8
##3d8
##3ee
##414
##426
##42a
##441
##442
##449
##452
##454
##474
##49c
##4cf
##4z
##502
##537
##545
##564
##569
##580
##591
##5ae
##5b8
##5y
##602
##609
##60b
##619
##622
##64e
##650
##673
##688
##69e
##6b2
##6e1
##745
##74e
##76f
##775
##7be
##7d8
##804
##813
##817
##82f
##82g
##843
##856
##87a
##881
##8a6
##8a8
##8dd
##8f6
##8n
##919
##927
##933
##948
##94f
##959
##95e
##962
##963
##979
##9cb
##9ef
##9g
##9q
##a31
##a3b
##a43
##a48
##a49
##a73
##aa7
##ach
##ae4
##ael
##ala
##ani
##b54
##b6d
##b8f
##b95
##ba0
##baldo
##bba
##bcd
##bd1
##beck
##bes
##bil
##c07
##c15
##c2e
##c33
##c5b
##c5c
##c73
##c81
##c87
##c9f
##cana
##cd9
##ce1
##china
##ciar
##cillo
##d0b
##d17
##d29
##d2d
##d56
##d87
##db6
##dcb
##dd1
##ddie
##de4
##die
##dola
##dores
##e07
##e11
##e18
##e4f
##edes
##edf
##edos
##elas
##elia
##elmar
##enko
##erzo
##esca
##ets
##f6e
##f88
##fab
##fac
##far
##fe8
##fef
##fi
##fica
##ft
##fuente
##gia
##gra
##gratis
##h7
##hl
##i1
##ides
##iego
##ieta
##iko
##ilidad
##ilio
##ius
##iza
##izaci
##ji
##ken
##l3
##lde
##lea
##lich
##lier
##lino
##llero
##lson
##mad
##mil
##n4
##nal
##nard
##nina
##non
##nz
##oca
##ok
##omera
##oney
##ono
##oon
##oras
##orm
##oya
##pedro
##pera
##pino
##pple
##rak
##rango
##rasa
##rat
##rba
##rcos
##rida
##riel
##ril
##rino
##rk
##rm
##roig
##rom
##rp
##rrell
##sina
##sley
##t1
##tiga
##tio
##torio
##tro
##uelo
##ull
##vero
##xi
##yar
0723351625880614
08470
09610
10005
10033
1005
1006
1008
10089
10161
10183
10260
10379
10423
10460
10479
10520
10563
10647
10702
10799
10827
10855
1087
1096
10960
10983
10a
11011
11039
11067
1111
11179
11207
11265
1127
11349
11415
1152
1157
11583
11655
11683
11693
11711
11797
1183
11853
11947
11963
12019
12077
1214
12161
12190
12217
12299
12311
12327
12413
12469
12535
12591
12619
12703
12775
12887
12a
13039
13083
13111
13197
13225
13253
13270
13291
13328
13363
13447
1351
13571
13699
13727
1381
13895
13951
14007
14131
14215
14259
14315
14412
14429
1447
14651
14803
1482
14880
14905
14959
14987
1499
15043
15099
15107
15139
15142
15147
15157
1517
15175
15213
15251
15318
1538
15407
15553
1565
15686
15687
15743
15857
15895
15913
15939
15957
1608
16081
16137
16140
16144
16175
16219
16277
16303
16333
16359
16427
16471
16529
16537
16555
16613
16630
16670
16800
16865
17031
17120
17154
1717
17171
17227
17311
17379
17397
17405
17421
17423
17435
17453
17491
17493
1750
17593
17675
17687
17705
17741
17789
17815
17871
1789
17899
17955
17967
18023
18056
18069
18191
18319
18331
18339
18349
18375
18431
18452
18471
18516
18567
18571
18657
18683
18695
18713
18739
18767
18823
18851
1886
18947
18965
19021
19075
1911
19134
19135
19187
19273
19299
19385
1939
1940
19432
19469
19492
19495
19507
1951
19551
19607
19637
19663
19675
19719
19775
19831
19843
19861
19887
19899
19943
19955
1998
1bob
20029
20055
20067
2008
20085
20120
20141
20167
20180
20197
20200
20251
20279
20309
20363
20375
20419
20503
20540
2055
20559
20587
20643
20699
20727
20739
20783
20795
2080
20839
20867
20879
20923
20979
21037
21063
21075
2109
21093
211
21131
21203
21215
21259
21271
21315
21371
21410
21457
21513
21520
21569
21595
21607
21625
21735
21887
21905
21931
21999
22055
22099
22120
22129
22155
22167
22193
22211
22215
22241
2225
22267
22279
22297
22323
22379
22400
22437
22440
22487
22519
22575
22727
22728
22745
22771
22783
22860
22883
2293
22939
22969
23023
23135
23191
23215
23249
23303
23359
23391
23473
23499
23511
23595
23613
23651
23667
23697
23734
23746
23753
23835
23863
23919
24003
24015
24033
24059
24071
24127
24152
2417
24175
24221
24229
24232
24339
24379
24397
24507
24563
24566
24603
24647
24659
24703
2471
24759
24768
24815
24871
24939
2499
2591
2595
2613
26312
2641
2651
2672
2753
2793
2799
2820
2863
2864
2865
2895
2931
2946
2947
2975
2ba
2bob
2e
3015
3027
3117
3118
3146
3155
3290
3323
3349
3359754319393302
3407
3471
3481
3494
3525
3537
3632
3731
3733
3759
3765
3771
3787
383
3880
3911
3916
3929
3939
3995
4011horas
4051
4079
40923
4095
40aulahost
40beautifulbody
40biosoftware
40blueeyes
40bru
40buscamoto
40carloshoya
40casablancabeach
40cbgerindote
40cocheacoche
40e
40eddydaniele
40elbauldelosrefranes
40enmenorca
40escuelamontessori
40espanolynegocios
40esposa
40esteticadayda
40eurograb
40farma
40informatica2009
40inoxled
40interanuncios
40itrends
40ladigianni
40lodgeinmadrid
40lodgemadrid
40magichobby
40mystyleperfume
40mytanga
40opel
40pablobracamonte
40paremoselalzheimer
40phd
40pisossantcugat
40prestigecars
40professionalhosting
40ringringcargo
40risiberia
40salsaspain
40sanchezquesada
40showenvivo
40silver
40softwaremasservicio
40ssextremadura
40tresbrujas
40zeat
4107
4129
4151
4189
4248
4277
4331
4337
4364
4371
4377
4387
4415
4430
4458
4487
4518
4542
4543
4562
4571
4598
460
4626
4631
4661
4683
4725
4762
4814
4835
4863
4881
4906
4907
4909
4932
4d
4e
5012
5093
5103
516
5187
5254
52864416c
5355
5425
5469
5497
5507
5535
5538
5581
5637
5639
5663
5693
5721
5787
5803
5858
5859
5887
5915
5e
6029
6085
6087
6179
6225
6258
6264
6281
6347
6374
6381
6429
6460
6487
6501
6503
6587
6617
6671
668
6684
6737
6783
6785
6815
6907
695
6951
7003
7011
7012
7013
7032
7039
7063
7109
7131
7159
7164
7203
7205
7287
7343
7395
7537
7542
7591
7626
7679
7681
7707
7730
7735
7740
7903
79531407y
7959
7964
7965
7986
7994
7g
8012
8143
8155
8164
8217
8252
8269
8275
8282
8297
8363
8419
8451
8516
8531
8533
8534
8588
859
8615
8656
8671
8683
8743
875
876
8839
8852
8883
8936
8937
8951
8962
898
8996
9081
9115
9182
9218
9219
9246
9247
9309
9331
9359
9398
946
9548
9555
9583
961
9651
9779
978
9789
9801
9807
9810
9893
9921
9947
ada
adelmo
albal
aldeanueva
alexia
andr
andreu
antoni
arquitecto
arroyomolinos
atico
augusto
bages
barca
barri
barros
benavente
berd
bernuy
blanc
burch
calzadilla
carbot
carles
carr
carrillo
casal
casta
castilla
cayetano
cid
corado
crist
damboise
dionisio
e9nez
echevarr
edvar
escriba
espa
espejo
f1ana
f1ora
f1oseguridad
f2s
f3var
felix
ferreol
flex
fluvi
gm
gorostiza
goyenaga
homepage
hoyo
huerva
incorrectasparos
ingelmos
jaled
jesus
job
jp
juli
julio
knights
kohls
lillo
linares
magdalena
malaqu
mares
marti
max
mayo
millan
monta
morera
msadcs
nadal
narros
nogueras
nucleo
nuestra
ojeda
ojos
olmos
pacheco
palau
palmira
pancracio
paraguay
paratge
pelayo
penagos
petit
photodecor
pinilla
ra
register
rica
roa
rs
rua
sagrada
salares
salas
santos
schulz
segre
selva
sk
sobremunt
ter
venus
verde
ves
vigilio
viviana
ying
yomona
yulisa
##012
##017
##035
##038
##090
##0a6
##0ae
##0d1
##0d7
##0f2
##0f9
##121
##131
##15f
##1a2
##1aa
##1bf
##1d6
##212
##218
##220
##23a
##241
##2673
##271
##27a
##2da
##2de
##2e2
##315
##31e
##327
##32f
##345
##359
##362
##365
##368
##371
##3cc
##3cd
##3fc
##415
##41d
##42d
##42n
##44a
##469
##478
##482
##49d
##4b6
##508
##519
##531
##535
##570
##574
##577
##583
##597
##5df
##5e4
##5e7
##5fa
##5p
##615
##627
##62e
##642
##651
##658
##66g
##689
##6d1
##6ed
##731
##73d
##77c
##7cf
##7d11
##7da
##7f6
##7f7
##809
##81d
##847
##88c
##891
##897
##8a3
##8af
##8c6
##8ef
##8fa
##929
##931
##942
##964
##986
##9a2
##9b7
##9e0
##a27
##a2a
##a51
##a59
##a7e
##aca
##ace
##adf
##aeb
##af8
##afe
##b1c
##b22
##b37
##b3c
##b4c
##b71
##b75
##b7e
##b82
##bb7
##bu
##c01
##c23
##c26
##c43
##c48
##c60
##c64
##c6b
##c75
##c80
##c98
##c9c
##ca0
##ca1
##cb9
##cc9
##cec
##cf67
##cf7
##cfd
##cido
##d07
##d42
##d54
##d65
##d82
##da0
##dc6
##dff
##din
##e42
##e51
##e85
##e88
##e8b
##e92
##ea7
##edad
##eeb
##ef4
##erga
##f00
##f06
##f24
##f3d
##f6a
##f8a
##fad
##gler
##hal
##inas
##ique
##lano
##lidora
##n8
##nea
##nja
##ntes
##old
##ones
##oop
##rley
##rto
##rvi
##s2
##t2
##uber
##uza
11051114m
16052504e
17473
214
22367
25191
25265
25471
25721
25723
25769
2579
26329
27001
27113
28189
28295
28359
28413
28815
29109
29410
29639
29719
31227
31271
31391
31439
31750
32520
32621
33279
33317
33455
33829
3393638948319901
34111
347
34839
35231
354
356
359
367
386
391
3927
398
40aebo
40esbien
40guejos
40mcrspain
40nanogenerador
40ofertasrusas
40porqueagel
40showcars
40sindualidad
410
414
416
423
428
441
443
4f
4up493a562i5
5024784015351535
6992
779
799
802
820
822
8608089924764976
8682803216185712
9078165703256769
abdel
adelfo
alf
arrunategui
atienza
bedmar
cabezas
calixto
castej
celinda
estrada
f3veda
federica
figueruelas
florencio
flores
fo
fuensanta
gelsomino
lude
maestro
mailena
maslo
nicolas
pescador
polo
ramos
rivera
sal
sanl
torrecilla
varela
vilar
##00a
##026
##045
##052
##060
##089
##09a
##0a2
##0a9
##0b4
##0b7
##0ea
##0k
##0v
##109
##12e
##14a
##150
##15d
##185
##1a7
##1a8
##1b6
##1c2
##1d1
##2014
##207
##213
##21e
##228
##233
##236
##260
##265
##280
##287
##2a3
##2b8
##2c8
##2e0
##2f8
##316
##386
##389
##390
##39d
##3a8
##3b5
##440
##446
##459
##46e
##47a
##4888
##4bb
##4be
##4c3
##4cd
##4h
##4k
##50a
##515
##51f
##521
##525
##527
##536
##544
##56d
##57e
##5c0
##5c1
##5e1
##5g
##5j
##5l
##614
##636
##6360
##637
##65c
##669
##66a
##676
##684
##696
##6a2
##6c1
##6e5
##6l
##733
##740
##756
##757
##76b
##7a5
##7b1
##7c1
##7e5
##7f2
##80e
##823
##830
##84a
##870
##8a1
##8ae
##8ca
##8e2
##8e6
##8ee
##8f5
##8v
##908
##9219
##938
##9390
##93f
##946
##94a
##95c
##96d
##971
##97c
##99f
##9fa
##9ff
##9o
##a18
##a2d
##a46
##a4c
##a6d
##a97
##a98
##a99
##a9c
##aa0
##aa5
##aa8
##ab1
##ab9
##able
##ac5
##ad3
##adera
##aide
##alda
##alia
##anes
##arca
##ario
##arr
##arra
##ava
##b1f
##b3e
##b4f
##b83
##ban
##bby
##bc7
##bcf
##bd0
##bd6
##be7
##bean
##bell
##berta
##blanca
##brada
##brega
##brija
##c0e
##c2a
##c4a
##c56
##ca2
##castro
##cb6
##ce0
##ce5
##ce9
##ceo
##cey
##ches
##chs
##cimiento
##cl
##cles
##cor
##d35
##d43
##d4a
##d6e
##d8a
##d99
##d9c
##dcd
##dd2
##dd9
##ddc
##de0
##de7
##del
##denas
##diana
##diz
##dman
##ds
##e02
##e03
##e14
##e29
##e66
##e7c
##eb4
##ed5
##eee
##ef1
##ega
##eh
##ein
##eiro
##ema
##erna
##este
##eza
##ezar
##f0c
##f1a
##f20
##f58
##f5f
##f6c
##f7e
##f84
##f87
##f9c
##fb4
##fc3
##fde
##ffa
##fort
##fre
##frecha
##gaz
##gena
##gente
##glia
##gordo
##gro
##hardt
##hr
##iaga
##ici
##ificaci
##illen
##indo
##inski
##ish
##jor
##jos
##lak
##laz
##lica
##lindo
##llego
##loc
##lu
##lund
##mao
##mat
##mayor
##mba
##meda
##mera
##mez
##mio
##miro
##mpo
##nato
##ndia
##ndre
##nesca
##netti
##nge
##nger
##nilla
##nin
##nna
##o3o
##obe
##onada
##oo
##ory
##oto
##oz
##perros
##pilla
##port
##ps
##pu
##quina
##r0
##r3
##rac
##racena
##rante
##rde
##rella
##rga
##riego
##roy
##roya
##rri
##rrius
##rsky
##rson
##rwitz
##sha
##sie
##sneros
##ssi
##sue
##tell
##tic
##tina
##tja
##torre
##tra
##uan
##udes
##uelos
##uera
##uet
##uevo
##ult
##ung
##uras
##urio
##uru
##usa
##usta
##uste
##vera
##vert
##worth
##yan
##yas
##yce
##ylor
##zano
##zas
##zco
##zio
##zm
##zu
05571
09640
10007
10008
10014
10016
10036
10037
10038
10039
10043
10045
10061
10066
10067
10068
10069
10071
10075
10076
10092
10093
10099
10101
10102
10103
10104
10117
10125
10126
10130
10136
10155
10169
10170
10188
10195
10196
10197
10201
10211
10217
10218
10224
10225
10226
10229
1025
10251
10252
10253
10254
10257
10259
1026
10267
1028
10285
10286
10287
10288
10296
10297
10313
10321
10323
10329
10341
10350
10352
10359
10360
10383
10384
10385
1039
10391
1040
10407
10413
10414
10415
10416
10424
10425
10448
10449
10450
10453
10461
10463
10477
10478
10480
10481
10490
10509
10514
10515
10519
10526
10527
10528
10547
1055
10554
10555
10564
10565
10575
10580
10581
10582
10583
10587
10588
10593
10603
10607
10608
10609
10615
1062
10621
10631
10639
10640
10648
1067
10671
10677
10679
10680
10681
10701
10705
10710
10711
10712
10715
10734
10743
10744
10745
10761
10772
10773
10780
10789
10802
10803
10804
10805
1083
10834
10835
10836
10845
10861
10862
10863
10869
10870
10873
1088
10892
10901
10902
10903
10904
10925
10926
10929
10933
10934
1095
10951
10952
10953
10954
10957
10961
10962
10967
1097
10984
10985
10991
10992
10993
10995
11010
11012
11013
11018
11019
11040
11046
11047
11048
11049
11051
11066
11068
11074
11075
11079
11097
11100
11101
11107
11109
11110
11111
11125
11131
11132
11135
11141
11142
11143
11144
1115
1116
11163
11166
11167
1117
11178
11180
11181
11205
11206
11208
11209
11212
11213
11214
11219
11238
11239
11243
11244
11245
11247
11269
11270
11271
11275
11278
11279
1128
11280
11293
11294
11295
11296
11303
11304
11305
11306
11321
11328
11329
11337
11338
11355
11356
11357
11358
11359
11365
11366
11367
11368
11377
11385
11386
11388
11396
11417
11418
11423
11424
11444
11449
11450
11451
11461
11472
11473
11476
11477
11478
11489
11494
11495
11496
11499
11502
11503
11504
1151
11517
11525
11526
1153
11532
11533
11534
1154
11545
11554
11556
11561
11562
11563
11564
11587
11588
11589
11600
11602
1161
11611
1162
11623
11629
1163
11631
11632
11633
1164
11656
11657
11664
11665
11667
1167
11682
11684
11685
11692
11695
11712
11722
11740
11742
11750
11768
11770
11780
11799
11800
11801
11808
1181
1182
11832
11835
1184
1185
11856
11857
11858
11864
11865
11881
11889
11890
11898
11899
11909
11918
11920
11950
11951
11952
1196
11960
11961
11962
11965
11975
11983
11984
11993
11995
11996
11h
12003
12020
12026
12027
12028
12029
12031
12050
12051
12060
12061
12062
12080
12081
12082
12083
12086
12088
12105
12108
12109
12114
12116
12133
12139
12140
12143
12145
12146
12147
12164
12165
12171
12172
12189
12197
12198
12214
12218
12219
1222
12228
12229
1224
12245
12251
12252
12256
12272
12274
12275
12280
12281
12283
12298
12301
12305
12306
12307
12328
12330
12339
12340
12341
12357
12363
12364
12365
12366
12367
12372
12373
12374
12385
12396
12397
12398
12407
12408
1241
12435
12436
12437
12441
12443
12444
12445
12451
12474
12475
12476
12477
12479
12486
12487
12488
1250
12503
12504
12505
12507
12512
12513
12537
12544
12553
12560
12561
12563
12569
1257
12570
12571
12572
1258
1259
12594
12595
12596
12604
12605
12620
12621
12627
12628
12647
12652
12653
12659
12660
12665
12675
12678
12679
12680
12681
12683
12684
1269
12705
12706
12707
12708
12716
12717
12718
12721
12731
12740
12749
12750
12751
12752
12753
12771
12776
12778
12787
12796
1280
12800
12801
12802
12805
12815
12822
12823
12828
12843
12855
12861
12871
12876
12877
12878
12885
12886
12889
12899
1291
12911
12912
12913
12914
12917
1292
12923
12924
12925
12927
1293
12945
12946
12955
12956
1297
12973
12980
12981
12983
12987
12988
12989
12990
13001
13010
13019
13020
13044
13045
13046
13052
13053
13057
13067
1307
13072
13073
13074
13075
13084
13085
13095
13100
13109
13110
13113
13116
13117
1313
1314
13140
13146
13147
1315
1316
13163
13164
13165
13166
13169
13175
13176
13179
13200
13201
13202
13207
13208
13209
13210
13228
13229
13230
13236
13257
13258
13259
1326
13260
13263
13268
13269
1327
13294
13295
13296
13303
13317
13318
13327
13347
13352
13353
13354
13355
13364
13365
13375
13387
13388
13394
13403
13408
13409
13415
13431
13437
13438
13439
13445
13446
13448
13449
13476
13478
13487
13493
13494
13495
13496
13501
13502
13505
13515
1352
13521
13522
13529
13530
13543
13544
13545
13546
13555
13556
13557
13573
13578
13579
13589
13596
13597
13598
13605
13606
13625
13626
1363
13639
13655
13656
13664
13667
13683
13689
13690
13691
13700
1371
13718
13719
1372
13726
13728
13729
13739
13751
13752
13757
13765
13766
13768
13779
13780
13786
13804
13807
13814
13815
13816
1382
1383
13835
13836
1384
13841
13843
13844
13863
13864
13865
13869
13871
13872
13873
13879
13892
13893
13894
13897
13900
13901
13902
13903
1391
13919
13920
13921
13925
13928
13929
13949
13950
13953
13960
13961
13962
13963
13976
13977
13978
13981
13983
13984
14008
14018
14020
14021
14037
14042
14043
14044
14047
14050
14051
14065
14071
14072
14073
14074
14075
14082
14083
14093
14104
14115
14116
14134
14135
14136
14143
14149
1415
14159
1416
14165
14166
14167
14172
14173
14174
14177
14187
1419
14192
14193
14194
14202
14219
14220
14221
14227
14243
14249
14250
14260
14271
14279
14280
14290
14291
14312
14313
14314
14317
14322
14323
14344
14346
14356
14357
14374
14375
14376
14383
14384
14385
14386
1440
14401
14406
14407
1441
14411
1442
14432
14433
14440
14457
14461
14462
14463
14467
14471
14472
14473
14485
14493
14494
14495
1450
14501
14502
1451
14513
14519
1452
14520
14521
14523
14531
14532
14552
14563
14564
14565
14569
14579
14588
14597
14598
14599
14600
14620
14621
14625
14628
14629
1465
14650
14653
14662
14682
14688
14689
14690
14691
14709
14710
14711
14712
14713
14717
14718
14720
14737
1474
14746
14748
14753
14754
14755
1476
14774
14776
14787
14806
1481
14811
14812
14821
14828
14829
1483
14830
14835
14849
14853
14854
14877
14881
14886
14888
14909
14910
14911
14915
14919
14920
14921
1493
14943
14947
14948
14960
14971
14986
14988
14994
14995
14999
1500
1501
15016
15017
1502
15021
15022
1503
15041
15042
15045
15050
15051
15052
15055
15074
15082
15084
1509
15100
15102
15105
15106
15108
15123
15125
15128
15130
15141
15143
15158
15161
15162
15173
15174
15176
15180
15181
15196
15197
15201
15202
15203
15204
1521
15214
15215
15216
15219
15220
15221
15235
15236
15237
15240
15242
15243
15253
15254
15255
15259
15260
15269
15272
15273
15274
15275
15276
15277
15291
15292
15296
15298
15307
15311
15312
15313
15316
1532
15325
15333
15334
15335
15337
15339
15352
15356
15357
15358
15359
15371
15372
15376
15377
15378
1539
15392
15393
15394
15396
15397
1540
15406
15408
15409
15411
15412
15413
15414
15426
15427
15428
15431
15432
15445
15446
15450
15451
15452
15466
15467
15468
15470
15471
15487
15488
15489
15492
15494
15503
15507
15508
15509
15510
15512
15515
15521
15526
15529
15530
15532
15548
15554
15564
15565
15566
15571
15572
15585
15586
15588
1559
15591
15592
15604
15606
15607
15610
15611
15622
15623
15624
15627
15633
15637
15638
15639
15640
15643
15644
15645
1566
15662
15664
15665
15666
15683
15685
15700
15703
15704
15705
15706
15718
15719
1572
15721
15722
15723
15724
1573
15736
15739
1574
15742
15755
15760
15762
15763
15764
1577
15773
15778
15779
15782
15784
15796
15797
15798
15800
15802
15811
15817
15818
15819
15820
15823
15824
15825
15826
15838
15840
15841
15844
15845
15858
15859
15861
15862
15880
15884
15886
15898
15899
15902
15903
15904
15914
15915
15916
15917
15920
15921
15922
15937
15940
15951
15956
15958
15963
15980
15982
15983
15998
15999
1600
16001
16002
16003
1601
16019
16020
16021
16026
16027
16035
16040
16041
16042
16043
16047
16048
1605
1606
16062
16066
16067
16068
1607
16083
16084
16087
16088
16089
16104
16105
16106
16117
16119
16120
16121
16138
16139
16142
16143
16159
16161
16162
16176
16177
16178
16181
16182
16196
16197
16201
16215
16218
16231
16237
16249
16256
16257
16258
16259
16262
16263
16264
16268
16269
1627
16278
16279
16280
16282
16283
16295
16296
16302
16317
16318
16321
16322
16334
16335
1634
16341
16342
16355
16358
1636
16372
16373
16375
16390
16391
16392
16395
16396
16408
16414
16430
16431
16432
16436
16445
16450
16451
16454
16470
16472
16473
16474
16475
16483
16487
16488
16489
16495
16496
16510
16515
16516
16517
16531
16532
16533
16536
16538
16551
16552
16556
16558
16567
16574
16575
16576
16581
16593
16594
16595
16596
16597
16598
16614
16618
16619
1662
16623
1663
16631
16632
16635
16636
16639
16649
16650
16653
16654
16655
16668
16672
16673
16674
16675
16686
16687
16688
1669
16692
16693
16694
1670
16709
16711
16712
16715
16716
16725
16732
16733
16734
16735
16738
16739
16752
16753
16755
16763
16768
16769
16781
16785
16786
16787
16788
16791
16792
16793
16794
16808
16811
16819
16827
16828
16831
16832
16848
16852
16853
16854
16866
16867
16868
16871
16872
16873
16874
1688
16884
16887
16888
1690
16904
16905
16907
16908
16909
16921
16924
16925
16927
16928
16929
16939
16940
16943
16944
16957
16958
16959
16962
16963
16964
16965
16978
1698
16981
16982
16995
16996
17013
17014
17015
17017
17018
17019
17033
17034
17035
17043
17047
17048
17049
17050
17061
17066
17067
17068
17069
17070
17088
17090
17092
17093
17099
17106
17107
17111
17117
17123
17124
17125
17126
17140
17141
17142
17153
17155
17157
17158
17159
17172
17173
17174
17175
17176
1718
17183
17189
1719
17195
1720
17207
17208
17210
17212
17225
17226
17230
17231
17239
17244
17245
17248
17257
17263
17264
17265
17267
17268
17269
17270
17271
1728
17286
17287
17291
17292
17304
17308
17309
17310
17321
17322
17326
17327
17328
17342
17343
17346
17347
17363
17364
17365
17370
17381
17382
17384
17385
17386
17399
17400
17401
17406
17419
17420
17424
17436
17437
17441
17442
17443
17455
17456
17457
17460
17461
17462
17475
17476
17480
17482
1749
17494
17495
17499
17500
17520
17521
17525
17526
17541
17542
17547
1755
17556
17561
17562
17573
17574
17576
1758
17580
17581
17582
17595
17596
17598
17599
17618
17629
17630
17631
17632
17633
17634
17648
17650
17652
17653
17654
17671
17673
17674
17689
17690
17693
17694
17709
17712
17713
17714
17727
17728
17729
1773
17730
17734
17735
17736
17749
17750
17755
17769
17774
17775
17776
17780
17790
17791
17792
17794
17795
1780
17807
17808
1781
17813
17814
1782
17827
1783
17831
17832
17834
17839
17852
17854
17855
17856
17858
17859
17870
17872
17873
17876
17877
17878
1788
17898
17900
17911
17914
17915
17916
17917
17918
17919
17920
17929
17933
17934
17935
17938
17940
17953
17956
17970
17971
17972
17975
17976
17986
17987
17988
17992
17993
17994
18007
1801
18010
18026
18027
18028
18032
18041
18048
18049
18050
18051
18054
18055
18071
18072
18073
18077
18078
1809
18092
18093
18098
18099
1810
18107
18115
18119
18129
18133
18134
18135
18137
18138
18154
18155
18157
18158
18159
18171
18175
18176
18192
18193
18194
18198
18199
18211
18214
18215
1823
18231
18232
18236
18238
18247
18252
18253
18254
18259
18274
18279
18280
18281
1828745224462815
1829
18294
18295
18296
18301
18302
18315
18316
18318
18332
18333
18336
18337
18338
18353
18354
18355
18357
18358
18371
18372
18373
18376
18387
1839
18392
18393
18399
18400
18412
18413
18416
18430
18432
18433
18436
18437
18438
18450
18451
18455
18456
18457
18458
1846
1847
18473
18474
18475
18476
18478
1848
18489
18492
18493
18496
18497
18498
18508
18512
18514
18520
18528
18529
18532
18533
18534
18545
18548
18549
18551
18552
1857
18572
18584
18587
18588
18589
18590
18601
18605
18606
18607
18610
18614
18625
18626
18628
1863
18630
18639
1864
18645
18646
1865
18660
18661
18662
18666
18679
18682
18697
18698
18701
18702
18715
18716
18717
18720
18721
18736
18737
18740
18749
18750
18751
18753
18754
18768
18772
18773
18774
18788
18792
18793
18794
18806
18810
18811
18812
18824
18826
18828
18829
1884
18844
18849
18850
18860
18861
18864
18865
18880
18882
18883
18887
18888
18889
18899
1890
18900
18903
18904
18905
18909
1891
18915
18916
18931
18932
18933
18934
18936
18949
1895
18950
18951
18954
18955
18956
18967
18968
18969
18973
18974
18988
18989
18992
19003
19006
19010
19011
19012
19022
19024
19025
19026
19036
19037
19038
19039
19040
19049
19053
19054
19055
19058
19071
19072
19076
19087
1909
19091
19092
19096
1910
19105
19110618x
19113
19114
19117
19118
1912
19120
1913
19137
19138
19148
19149
19152
19168
19169
1917
19171
19172
19173
19174
1918
19188
19193
19194
19196
19208
19211
19212
19213
19229
1923
19230
19231
19235
19236
19244
19251
19252
19253
19255
19256
19257
19258
19274
19279
19280
19295
19297
19298
19313
19315
19316
19328
19329
19330
19331
19339
19344
19345
19346
19351
19352
19353
19368
19369
1937
19373
19374
19375
19376
1938
19388
19389
19391
19394
19396
19397
19408
19409
1941
19412
19414
19415
19423
19427
19428
19429
19430
19441
19448
19449
19451
19452
19453
19454
19455
19470
19471
19474
19475
19476
1949
19491
19494
19496
1950
19509
19510
19512
19513
19514
19515
19525
19528
19529
19530
19531
19534
19548
19549
19550
19553
19554
19555
19556
19563
19568
19569
19572
19581
19585
19586
19587
19590
19592
19608
19609
19610
19611
19612
19619
19626
19627
19639
19640
19641
19642
19644
19645
19646
19659
19660
19662
19677
19678
19679
19682
19683
19684
19693
1970
19702
19704
19705
1971
19716
19717
19720
19732
19733
19737
19738
19739
19749
19756
19757
19759
19760
19761
19762
1977
19774
1978
19785
19786
19789
19790
19791
19804
19806
19807
19810
19811
19812
19827
19832
19844
19845
19848
19849
19862
19863
19864
19865
19867
19868
19869
19870
19883
19884
19885
19888
19900
19901
19902
19903
19904
19918
19919
19921
19922
19939
19940
19942
19944
19957
19958
19959
19960
19963
19964
1997
19973
19978
19979
19980
19983
19984
19985
19986
1999
19998
1f
1sessionid
20002
20011
20016
20017
20020
20032
20033
20034
20036
20037
20051
20054
20056
20069
2007
20070
20071
20086
20088
20089
2009
20095
20103
20107
20108
20119
20121
20122
20123
20124
20125
20126
20127
20142
20143
20146
20147
20148
20163
20165
20166
20177
20178
20184
20185
20186
20199
202
20201
20204
20205
20206
20219
20220
20221
20233
20234
20235
20237
20238
20239
20252
20253
20255
20256
20257
20258
2027
20272
20278
2028
20280
20289
20290
20294
20295
20296
20297
20310
20311
20313
20314
20315
20326
20327
20328
20331
20332
20337
20343
20344
20345
20347
20348
20349
20350
20361
20362
20364
20366
20377
20378
20380
20381
20382
20394
20395
20397
20398
20399
20415
20416
20418
20420
20431
20437
20438
20439
20443
20444
20445
20455
20456
20457
20458
20459
20461
20462
20463
20464
20478
20479
20483
20484
20485
20486
20501
20502
20504
20514
20516
20517
20518
2052
20532
20534
20535
20537
20538
20539
2054
20556
20557
20558
20572
20573
20574
20576
20588
20590
20593
20594
20595
20596
20607
20608
20611
20612
20617
2062
20624
20625
20627
20628
20629
20642
20644
20645
20646
20647
20655
20661
20662
20663
20664
20673
20679
20680
20684
20685
20700
20704
20705
20706
20707
20723
20724
20728
20743
20745
20746
20747
20748
20757
20760
20761
20764
20765
20766
20779
20780
20784
20797
20798
20799
20803
20804
20813
20819
2082
20820
20821
20823
20825
20826
2083
20840
20841
20843
20844
20851
20858
20859
20860
20865
20866
20880
20881
20884
20885
20898
20899
2090
20900
20902
20903
20904
20919
20920
20924
20935
20940
20941
20942
20947
20948
20949
20964
20966
20967
20980
20981
20983
20984
20991
20999
21000
21004
21005
21020
21023
21024
21025
21026
21038
21039
21040
21043
21044
21045
21059
21062
21064
21077
21078
21079
21081
21082
21095
21096
21097
21098
21101
21102
21115
21116
21117
21120
21122
2113
21134
21135
21136
21139
21140
21149
2115
21156
21157
21158
21159
21162
21163
21178
21179
21181
21182
21183
2119
21195
21196
212
21201
21202
21218
21221
21222
2123
21234
21236
21237
21238
2124
21255
21256
21260
21274
21275
21277
21278
21279
21289
21295
21296
21297
21299
21300
21301
21302
21316
21321
21335
21336
21339
21341
21342
21354
21356
21357
21359
21360
21361
2137
21372
21374
21377
21378
21390
21391
21392
21395
21396
21412
21413
21416
21417
21428
21430
21433
21434
21435
21443
21444
21445
21447
21459
21460
21461
21463
2147
2148
21480
21481
21482
2149
21494
21496
21497
215
2150
21500
21514
21515
21516
21517
21519
21531
21532
21535
21536
21537
2155
21550
21552
21556
21557
21558
2156
21571
21572
21573
21576
21577
21588
21593
21594
21609
21613
21614
21615
21627
21628
21629
21630
21632
21633
21634
21648
21649
2165
21650
21653
21654
21655
21656
21663
21670
21671
21675
21681
21688
21689
21690
21691
21694
21695
21696
21711
21713
21714
21728
21731
21734
21748
21749
2175
21751
21752
21753
21766
21767
21768
21771
21772
21787
21788
21792
21794
2180
21803
21808
21809
2181
2182
21821
21827
21828
21829
21830
21831
21833
21834
21848
21850
21851
21852
21859
21866
21867
21868
21870
21871
21872
21873
21888
21889
2189
21893
21894
21895
2190
21907
21908
21912
21913
21914
2193
21930
21943
21948
21949
21950
21955
21961
21969
21970
21972
21974
21975
21985
21988
21990
21991
21filatelia
22002
22003
22004
22008
22017
22020
22023
22024
22025
2203
22040
22041
22044
22058
22059
22060
22061
22064
22073
22079
22080
22082
22084
22095
22100
2211
22111
22115
22116
22117
22118
22119
2212
22132
22133
22134
22135
22137
22138
22151
22152
22156
22170
22171
22174
22175
22176
22185
22189
22208
22209
2221
22210
22214
22223
22225
22226
22227
22228
22229
22230
22234
2224
22243
22244
22245
22247
22248
22249
2226
22263
22265
22266
2227
2227850098385549
22282
22283
22284
22285
22287
22288
22301
22302
22303
22304
22306
22308
22309
22321
22322
22324
22325
22327
22328
22335
22342
22343
22347
22348
22358
22359
22364
22377
22378
22382
22383
22391
22395
22396
22397
22399
22409
22417
22420
22421
22438
22444
22445
22446
22460
22461
22462
22466
22467
22475
22481
22482
22488
2249
22504
22506
22507
22520
22524
22525
22537
22538
22539
2254
22543
2255
22556
22557
22558
2255812100125453
22559
22562
22563
22574
22576
22577
22580
22581
2259
22595
22596
22599
22600
22611
22614
22628
22629
2263
22630
22633
22634
22635
22636
2264
22640068h
2265
22651
22652
22655
22661
22669
22670
22673
22674
22690
22691
22695
22696
22697
22698
22711
22712
22716
22729
22730
22733
22734
22735
22736
22748
22749
22750
22753
22754
22756
22769
2277
22772
22773
22774
22775
22776
22786
22787
22790
22791
22801
22807
22808
22810
22812
22824
22825
22828
22839
22843
22847
22848
2285
22857
2286
22861
22863
22864
22865
22881
22882
22897
22898
22901
22902
22914
22915
22917
22918
22919
22932
22935
2294
22940
2295
22952
22953
22954
22957
22958
22959
2296
22972
22973
22974
22975
22980
22981
22998
22999
23002
23003
23004
23020
23021
23022
23025
23027
23028
23029
23030
23035
23039
23040
23041
23043
23044
23053
23059
23062
23076
23077
23082
23083
23084
23091
23098
23099
23103
23114
23115
23118
23134
23138
2314
23147
23149
23150
23151
23152
23153
23154
23155
23156
2316
23165
23169
23170
23171
23172
23176
23177
23189
23190
23193
23195
23196
23197
23198
2320
2321
23211
23212
23216
2322
23229
23231
23232
23233
23234
23250
23251
23254
23271
23272
23273
23283
23284
23285
23287
23288
23289
23290
23302
23304
23308
23309
23310
23327
2333
23333
23340
23341
23344
23345
23346
23360
23361
23362
23363
23364
23365
23371
23377
23378
23379
23383
23384
23395
23396
23397
23398
23399
23402
23403
2341
23416
23418
2342
23421
23422
2344
23440
23441
23453
23454
23456
23459
23460
23474
23475
23476
23479
23480
23481
23495
23496
23497
23500
2351
23513
23514
23515
23516
23519
23520
23529
23534
23535
23536
23540
23552
23553
23554
23556
23558
23567
23572
23573
23574
23575
23579
23580
23597
23598
23599
23603
23604
23614
23615
23617
23618
23630
23631
23632
23635
23636
23637
23638
23652
23655
23656
23666
23668
23671
23672
23679
23684
23685
23687
23688
23699
23700
23701
23704
23705
23706
2371
23720
23721
23732
23733
23739
23740
23756
23757
23758
23762
23764
2377
23778
2378
23781
23782
23783
23784
23785
23791
23797
23798
23799
23803
23804
23811
23812
23814
23815
23816
2383
23834
23836
2384
23846
23849
23850
23862
23864
23868
23869
23870
23871
23881
23882
23883
23887
2389
23900
23901
23902
23903
23905
23906
23907
23918
23920
23924
23925
23926
23927
23940
23945
23946
23960
23961
23964
23965
23966
23978
23979
23982
23983
23999
24001
24002
24004
24017
24018
24019
24021
24022
24035
24036
24037
24038
24042
24055
24060
24062
24073
24074
24075
24078
24079
2408
24089
24093
24094
24095
24097
24098
2411
24111
24112
24113
24116
24130
24131
24132
24134
24135
24136
24145
24153
24155
24156
24157
24158
24169
24173
24176
24190
24191
24192
24196
24197
2421
24210
24212
24216
24217
24218
2422
24230
24231
24233
24236
24237
24238
24251
24253
24266
24271
24284
24286
24289
24290
24291
24304
24308
24309
24325
24327
24328
24340
24341
24343
24344
24345
24360
24366
24368
24370
24381
24382
24384
24385
24399
2440
24400
24403
24404
2441
24415
24416
24419
2442
24420
24421
24434
24436
24437
24440
24441
24442
24453
24458
24459
24460
24462
24464
24476
24477
24478
24480
24494
24495
2450
24506
24508
2451
24512
24519
24525
24526
24537
24541
24542
24545
24546
24561
24562
24565
24567
24568
24584
24588
24589
24590
24606
24607
24608
24609
24612
24621
24627
24629
24630
24643
24644
24648
24661
24662
24665
24666
24667
24668
24671
24674
24677
24679
24680
24682
24683
24690
24692
24693
24695
24700
24702
24706
24713
24714
2472
24727
24729
24733
24743
24750
24755
24757
24761
24765
2477
24771
24775
2478
24780
24786
24788
24789
2479
24794
24795
24801
24804
24806
24807
24811
24814
24816
24819
24821
24829
24833
24844
24849
24850
24851
24856
24860
24869
24870
24873
24874
24878
24886
24897
24902
24909
24910
24912
24913
24916
24917
24919
24920
24925
24934
24940
24946
24951
24959
24964
24966
24971
2498
24985
24987
24992
24995
25003
2501
25013
25022
25030
25037
25038
25041
2505
25050
25051
25052
25054
25059
2506
25064
2507
2508
2530
2531
2532
2536
2537
2538
2539
2557
2558545383527310
2571
2585
2590
2592
2597
2598
2618
2623
2625
2643
2644
2654
2655
2669
2673
2674
2675
2679
2683
2684
2685
2708
2709
2715
2725
2733
2734
2735
2738
2739
2740
2761
2762
2763
2767
2768
2769
2770
2791
2792
27e
2800
2819
2831
2847
2859
2862
2894
2916
2917
2918
2933
2934
2944
2945
2959
2967
2968
2976
2977
2996
2cc
2cr
2fi
2fr
3005
3028
3033
3035
3036
3037
3056
3062
3083
3084
3085
3090
3091
3111
3112
3119
3120
3121
3127
3144
31498
3152
3153
3174
3181
3182
3197
3198
3201
3202
3203
3204
3205
3223
3230
3251
3252
3258
3259
3281
3282
3285
3288
3289
3317
3324
3325
3326
3341
3348
3351
3355
3356
3357
3378
3380
3383
3384
3385
3409
3410
3425
3435
3447
3448
3449
3453
3455
3456
3457
3458
3463
3484
3485
3486
3491
3495
3509
3513
3514
3519
3522
3523
3524
3538
3539
3540
3548
3566
3567
3568
3576
3593
3600
3601
3602
3612
362
363
3643
3659
3666
3667
3668
3676
3678
3687
3705
3706
3707
3730
3738
3739
3740
3743
37488
3758
3760
3761
3766
3767
3768
3788
3789
3794
3795
3799
3814
3816
3824
3825
3826
3852
3853
3854
3855
3861
3862
387
3873
388
3881
3883
3890
3891
3917
3923
3942
3943
3944
3945
395
3951
3952
396
3967
397
3970
3971
3999
4000
4015horas
4024
4027
4028
4029
40291
4041
4052
4053
4058
4059
4060
4069
4082
4083
4084
40906
4093
4094
4097
40adondeir
40apicultor
40barebackspain
40blanquillos
40campanasextractoras
40casabolsa43
40cirujanaplastica
40citiway
40clubdeviaje
40cortinas
40cumbareback
40devuelos
40directoriogratuito
40dise
40djbroadcast
40docerosas
40elrincondelmarmol
40enlapalma
40erasmusrooms
40fighting
40foreignoffice
40gay
40gemas
40gesmahernan
40hiperespa
40hostingprofessional
40icodea
40imarbella
40informex
40infotek
40ingenieriadelaconstruccion
40intg
40iurispretor
40laspruebascongaseosa
40lettere
40masqueclases
40mcfly
40mobilecrm
40naturalchild
40noticiasenvivo
40noviasteresapalacios
40onoratoinformatica
40palomajimenez
40placeresadultos
40portaldesign
40provider
40quadernideilgarda
40raullazaro
40saavedradiaz
40salaparis
40schnapps
40sietepeines
40so
40softwaresaas
40somosagelespa
40soybueno
40soyrojo
40tetdevelocidad
40thw
40vi
40wormee
40yksoluap
40ytv
4125
4130
4150
4152
4153
4157
4158
4159
4160
4163
4177
4178
4180
4181
4186
4187
4188
4191
4209
4213
4214
4215
4219
4224
4225
4247
4249
4256
4276
4296
430
4304
4305
4306
431
4315
432
4334
4335
4336
4343
4345
4349
4359
4365
4366
4372
4374
4389
4390
4391
4399
4421
4422
4428
4429
4443
4448
4449
4450
4455
4456
4457
4471
4478
4479
4480
4488
451
452
4527
453
4536
4544
4545
4555
4559
4560
4561
457
4570
4572
4573
4583
459
4590
4591
4601
461
4624
4625
4629
4632
4651
4652
4657
4660
4662
4681
4682
4685
4691
4692
4695
4714
4723
4726
4727
4741
47494
4750
4751
4757
4769
4778
4780
4785
4786
479
4797
480
4806
4808
481
4815
4816
482
48258022c
4836
4842
4843
4844
485
4867
4868
4869
4883
4884
489
4899
490
4900
4931
4933
4937
4941
4942
4943
4947
495
4967
4968
4969
4977
4978
4981
4993
5001
5002
5030
5032
5033
5043
5065
5066
5067
507
5073
5074
5077
508
5087
509
5094
5102
5104
5105
5127
5132
5143
515
5152
5160
5188
5189
5197
5198
5200
5221
5222
5226
5246
5247
5256
5274
5275
5282
5284
5285
5301
5307
5308
5309
5310
5311
5315
532
5329
5334
5340
5341
5354
5356
5360
5361
5362
5367
5386
5392
5393
5394
5395
5413
5417
5418
542
5423
5424
5434
5441
5446
5447
5451
5453
5454
5474
5475
5479
5485
5486
5487
5511
5512
5513
5519
5520
5543
5544
55492932g
5569
5570
5583
5584
5585
5591
5593
5594
5609
5612
5613
5619
563
5638
564
5640
56405919y
5644
5645
5647
5664
5676
5685
56967582d
5697
570
5703
5710
5711
5712
5723
5724
5731
5735
5736
5741
5749
5755
5757
5759
5765
5766
5767
579
5791
5792
5793
5798
5801
5802
5805
5822
5834
5835
5843
5850
5851
5852
5861
5871
5885
5886
5889
5891
5892
5893
5908
591
5913
5914
5917
592
5927
5939
5940
5945
5946
5947
5948
5967
5974
5975
5976
5997
5998
5a
600
6001
6007
6011
602
6032
6033
6034
6035
6039
6042
6057
6058
6059
6060
6064
6065
6066
6067
6088
6089
6095
6098
6099
6100
6113
6123
6124
6125
6141
6151
6156
6164
6165
6166
6169
6181
6191
6192
6193
6208
6209
6213
6214
6215
6232
6233
6234
6235
6239
6240
6244
6253
6259
6260
6265
627
6284
6285
629
6291
6292
6293
6294
6309
6317
6318
6326
6327
6328
6352
6353
6354
637
6373
6375
6379
6380
6393
6400
6401
6403
6412
6421
6430
6437
6438
6439
6449
6467
6468
6491
6492
6502
6515
6522
6523
6524
6528
6529
653
6530
6533
6541
6555
6556
6556979183874771
6560
6562
6563
6571
6588
6589
6595
6596
6597
6599
660
661
6618
6619
662
6625
6626
6627
6645
6646
6647
6651
6652
6655
6672
6682
6685
670
6701
6707
6708
6709
671
6711
6718
6719
6720
6738
6740
67474361c
6751
6752
6757
6767
6774
6775
6782
6784
6795
6804
6807
681
6813
6814
6816
6841
6850
6852
6853
6867
6869
6880
6891
691
6910
6911
6912
6919
6920
6921
6925
6935
694
6940
6941
6950
6952
696
697
6972
6975
6981
6983
6984
6b
6e
7004
7005
7031
7037
7040
7062
7064
7065
7074
7076
70803791q
7093
7101
7102
7103
7108
7110
7121
7133
7134
7143
7149
7163
7165
7166
7176
7178
7187
7195
7196
720
7202
7215
7227
7237
7238
7238071991283064
7239
7240
7243
7261
7266
727
7272
7273
728
7288
7289
7291
7292
7308
7316
7318
7342
7345
7351
7352
7353
7355
737
7372
7379
7383
7396
7397
7401
7403
7404
7405
741
742
7425
7426
7428
7429
743
7435
7437
7439
7456
7458
7464
7465
7467
747
7479
7480
7486
7507
7508
7509
7512
7514
7515
7535
7536
754
7541
7543
7544
755
756
7563
7564
7568
7570
7579
7592
75925253e
7593
7597
7598
7599
7619
7620
7627
7646
7647
7648
7649
7650
7653
7657
7658
7659
7660
7663
7678
7680
7689
7690
7701
7709
7714
7715
7734
7737
7741
7759
776
7760
7765
7768
778
7788
7789
7790
7793
7797
7798
7799
7816
7817
7818
7821
7848
7849
7851
7852
787
7877
788
7881
7882
7883
7901
7902
7904
7905
7908
7909
7910
7911
793
7932
7933
7939
7940
7941
795
7958
7961
7963
7971
7983
7984
7985
7989
7992
7993
8013
8014
8017
8021
8023
8024
80243620r
8027
803
8042
8046
8047
8067
807
8074
8075
808
809
8098
8101
8109
8110
8122
8129
8132
8133
8134
8139
8142
8144
8156
8165
817
818
8185
8188
8189
8194
8196
821
8213
8215
8216
8221
8222
8241
8242
8243
8244
8251
8253
8254
8273
8274
8279
8283
8284
8301
8302
8306
831
8325
8332
8333
8334
8335
8339
8340
8341
8345
8353
8358
8359
83627503d
8366
8367
8368
8369
838
8381
839
8390
8392
840
8400
8403
8420
8422
8423
8428
8431
8437
8447
845
8452
846
8461
8462
8465
8475
8481
8482
8487
8488
8489
849
8490
8493
8496
8503
8508
8509
8515
8532
8535
8543
8544
8545
8549
8566
8571
8572
8573
8574
8577
8587
8593
8594
8595
8596
8605
8606
8607
8624
8627
863
8633
8634
8635
8636
8637
864
8643
865
8657
8658
866
8661
8662
8663
8684
8689
8693
8694
8716
8718
8725
8726
8727
8746
8756
877
8773
8780
8781
8783
8787
8788
8801
8810
8812
8818
8819
8820
8842
8843
8844
8845
8853
8867
8873
8880
8881
8882
8885
8895
8900
8901
8907
8908
8909
8913
8923
8929
8930
8938
8953
8954
8955
8963
8964
8979
8987
8988
9007
901
9015
902
9021
9022
9025
9047
9048
905
9053
9059
9060
9061
9063
907
908
9084
9091
9094
9095
91059337z
9109
9116
9117
9118
9119
9122
9123
9124
9137
9144
9145
9146
9147
9156
9175
9180
9181
9192
9194
9195
9203
9212
9221
9231
9238
9239
9249
9259
9268
9276
9299
9305
9310
9311
9312
933
9330
9332
9333
9339
934
9340
9341
9343
935
936
9360
9361
9368
9369
9370
9371
9389
9391
9392
9416
9418
9419
9427
9429
9430
9445
945
9451
9452
9453
9455
9458
9459
9460
947
9473
9480
9481
9482
9483
9487
9488
9489
9501
9508
9509
9511
9519
9520
9539
9546
9547
9554
9556
9557
9571
9572
9573
9574
9581
9582
9585
9595
9603
96068417q
9607
9624
9630
9631
9632
9641
9656
9657
9658
9659
966
9666
9669
967
9679
9687
9688
9692
9693
9694
9697
9707
971
9715
9716
9726
9727
9747
9748
9754
976
977
9778
9781
9788
979
9790
9808
9818
9820
9836
9838
9839
9845
9846
9847
9864
9866
9873
989
9898
9899
9900
9901
9903
9907
9908
9923
9924
9925
9930
9932
9948
9958
9959
996
997
9974355200418178
9976
9978
998
9986
9987
999
ab
adam
agustin
aire
alamedilla
alberti
alcira
aldehuela
aldeta
alegria
alta
amelie
arbanc
arcos
ari
artesa
asensio
atal
badia
baja
bartra
bartumeu
bastida
batet
beaumont
blaya
bovera
brihuega
cabeza
campillo
candela
carolina
carrasco
ceciliano
cepeda
cerda
cervantes
claudio
coca
collantes
colon
constitucion
coria
cort
cortadel
corvera
cris
cuevas
cugat
curiel
dagmar
damian
derch
devlin
devore
diez
dor
drvrs
e1ez
e8n
e9e
e9l
ebs
edfero
edguez
eli
entrada
esguevillas
esp
espada
f1avilano
f1ella
f1odesoftware
f1uela
f39
f3gico
f3rzano
fajardo
fan
farzati
fcela
fong
fontiveros
francino
fray
gala
gar
giorgis
girasoles
granyena
guare
guzman
henares
hinojosa
hua
hyer
iglesias
ihor
ingeniero
insertarany
ivanyi0
ivern
jaime
jaraba
jaume
junior
lazcano
liana
libertad
llobregat
llufriu
longdon0
lora
lorente
luciana
lutz
luz
machines
madre
maquieira
mardoqueo
mascarell
mateu
meera
mengual
mercedes
merlina
minguez
miranda
mojeda
molacillos
molina
monasterio
monasterioaren
moncayo
monestel
montesion
montiel
montori
mora
morgadas
moscoso
moyna
munshin
nal
navaluenga
negros
oberto
oria
ortiz
pall
palma
paramo
pastora
paterna
patient
patricio
pedrol
pellizza
pin
plasenzuela
pn
poma
pomponio
porto
rachid
registrarany
regueras
riells
riera
rillo
roanne
robustiana
rojo
rom
rosal
rosenthal
roxana
sagra
sala
salinas
salom
sanabria
santini
serrano
servlets
soma
stylianos
tantra
techniques
tejani
terry
tolaba
tom
toro
urbina
uz
valderr
valente
valiente
vasiliad
ventura
via
viabrea
viera
yeltes
za
##01c
##024
##03e
##05b
##070
##076
##078
##080
##0899
##0aa
##0bf
##0c9
##119
##136
##151
##156
##162
##16c
##17d
##184
##198
##19f
##1a6
##1b3
##1e4
##1ef
##1fa
##1fb
##21d
##227
##25c
##25d
##266
##26a
##28f
##2af
##2d4
##2f7
##2y
##310
##323
##329
##34a
##353
##376
##37d
##3ca
##3cf
##3e2
##3f0
##3f1
##3f6
##3ff
##407
##412
##4222
##431
##433
##43f
##457
##481
##484
##485
##48c
##492
##49a
##4a0
##4a6
##4b2
##4c4
##4cc
##4eb
##4q
##50b
##5153
##522
##524
##539
##552
##571c
##5b0
##5ca
##5ce
##5da
##5f2
##5f3
##5z
##61b
##643
##645
##655
##657
##661
##692
##693
##6cb
##6d4
##6f0
##6f4
##719
##721
##735
##76c
##77e
##7a9
##7b3
##7b7
##7ble
##7cd
##7e2
##7fd
##800
##805
##834
##83b
##850
##851
##858
##8784
##89c
##8d8
##8e0
##8e7
##951
##952
##95f
##980
##987
##99e
##9b2
##9ba
##9e2
##9e4
##9w
##a21
##a35
##a57
##a61
##a6e
##a74
##a8d
##a90
##a9a
##aaf
##ab4
##abb
##ac3
##acb
##acc
##apa
##b0f
##b15
##b21
##b27
##b39
##b3a
##b56
##b62
##b63
##b64
##b69
##b72
##b76
##b87
##b8a
##b99
##b9e
##ball
##bce
##bf1
##bf41
##billa
##c04
##c1b
##c29
##c44
##c52
##c5e
##c68
##c8f
##c92
##c93
##cb1
##cb7
##cc3
##cca
##ccf
##ce3
##ce4
##cf5
##chat
##cki
##court
##d25
##d3e
##d4d
##d52
##d58
##d5c
##d61
##d6b
##d7ad
##d86
##d89
##d8c
##da3
##db1
##dbf
##dc1
##dc2
##ded
##dee
##df1
##df4
##dul
##e0f
##e19
##e20
##e3b
##e3d
##e50
##e5b
##e6e
##e6f
##e78
##e94
##ea0
##ea4
##ec5
##ec6
##ecb
##ed3
##edd
##ede
##efb
##efe
##entes
##erre
##eve
##f12
##f34
##f53
##f62
##f68
##f7b
##f8e
##fb5
##fb7
##fba
##fc1
##ffc
##ield
##ionario
##iso
##ladell
##ldi
##lk
##llard
##lol
##m7
##mel
##mida
##oain
##ole
##ovana
##rque
##rquera
##rst
##sole
##uma
##vet
##zin
0008ca1c9213dccf9c3ef1b49282056c
0018896f4bc006419d6a5ec26d022943
001f9df9bf215d40952fa1472dccebdd
002da1d40de0ddcf63b7ea1620fc468e
0035d156f2dcf547586318c567b8e0ee
003bab2cbf76dc605d66c45472093efe
0040408141488994
00456d6d70c93cf050392cf9d309db05
006be2b0542368bce74082f15a41d1fa
006f1c352871e6b0c33d351e65ecef5e
007fba68f7f5f5cf021b04616d0d912d
00857b6d28b1afafed97f0a8dde701c2
008886a7c880f703c2bada0769ec5447
00909dddc2db89440755df713a93b2d1
0090beae67dea87d037b21cd766a955c
0097a19ed5f7dacc4e467f1df9d49165
009b52e666cc3113ee8fc0f97958fe26
00a8bae84afe424444326a191e4983ae
00ad89e9d23b62c8b47c8cbc76e3a78b
00af5fa42af116d90cfcfc3465145415
00b42cfb8ab34ea4989b8befb9ceed00
00b65e46fca141b4b2dfa040d4050d98
00b6941a4038921b0edfa5ab9c5f65ce
00bcc7a79674c3a9d33dcc916b8d6658
00cd6b69b320b3b02af7bdd5698011a5
00cdf926542c4fc31010c45d9edd52b3
00d2f347703b82b74970a11d2ac59118
00d5f3c33ed30c06d70554e2ab8c4f5c
00f96be37d02d0c2279f1be8455c19fb
00fefda9bd157eb9592fbb07aad3fbea
010b22b3ceacc71003b256e10817c284
011b8615f39de81e57cec68abf82fbc4
0121e5ae76f8a9f136b67ac8ebd52265
0124bb3d1756c4a1a525ffc0d477e6fe
012adaf9a9c3775cd35b3483146e5bbf
013ffd43952ff59fb3ac91b270bd4eac
0144c0bfae3ebe92b834d7ba6314b5b9
014d9db6bf9593adff059d4c9653b790
015ed844c72c07ef5a13fb58f4da06e2
015ef72e26b48ae7922026b8a3bda3e1
015ffd282aaf8e4ccaca089513db38ff
0163ff170bfa669ec12fec6e50834517
016650597f4affdcb798abd9d0521963
016857acc2b325a6dd02768cb9aaba94
016a94b4cffa9300af5b1ebd28e234da
016aba0898427fe31556fb8a961a3302
016ce4c7c15e11f033838da2bc15b9be
017fa8fee1f135fa27e637916e113dc1
0186f137730c4c1f453033c6a68bced2
0188ef4e78a6a45b1455465e0ff1d770
0192ebcb6475794128e794cd3556177e
019415c74b6a4517d97b4ce24cfc51e3
0198bada598fd0a49a0fa8a56826aaa8
019e2a7e09ab67ba81c504ee98586825
01aa482f3ffd97b192e87f91880e2cf9
01ad3b4bee8db185ce2a024a76b1e053
01b36f9447a0b83eb61c93b9331ec7b1
01bb8ae9b3d6e1d3ba7126bb70a9f979
01c2bfe2876951defb8eb4f2af034e14
01c2c4d4446312a6d7854b86ff82b5d8
01c3206e3697b19b171fbb6c8a0036b4
01c37ab6cc267dd5d7fef146101023be
01c4257b5fe7ac0f2eeab45f4580c53a
01cc1a37d2c77f1fb39fd8c804f3a91e
01d4e598f259c3d25176f2e658d97d8c
01e7d7da1f373453398069c6a5f1c93a
01ec6c22ebac015f69eb5b5ef636e1e0
01f4d3181de88f81a2b17fe9ac4b687c
01fa0efeb25ccdd073f0b0343baf0f1f
01faddd9a58f2c895253b044ccb51e5e
01faecde88da43fc4283b83745730337
0202b4cc0bd64c190b8672a724d60f56
0203afbfad04fc769e897ea440c35fd4
02077346f86a9ff5569d43ecd8075571
020b3cd8a44aa76af786527e50ec00be
020fd2b9fc7da3c7f3a9301f686e140b
022c2406ab2768c44e4206ea976d3bf6
022e8f925d86f4da78088079d5bb0be3
023fc99a05d6ea722eb26146b1d747c8
0249f09068cec72f3a1191a8faaa70cf
02501203c41a79de9ca40a4127b02638
025affcf1578aa37cfa10186f1847359
02606063aafa645fb2d740582696ff74
02613b5609eba9f5792be268878d8d3b
02633a95cd1a0334380d356a69f4ce55
026870b933b0607532f2711e79ea8d06
027027c62c239a56e72ce1f60612f580
0273dfbeb8b3630b42b86bf8b2e4c585
027b864c5a2c00d9ba34de6924290052
027d9e47290d89687a4bf1a38ece7689
027e5c084fe47537495d92debf97f8c2
027e9e378299a95f65bc6a6f6bd66eb3
0282dc0a043b0fbc6540247f6a94c7ee
02832eecded9a6fe6894d614e93624ae
028ab13184103d4463ccc79f1aa19b20
028d1a7a7979e3b6fbfdd65e1005714d
029042742dd6534e35a9c97f0974526a
02911eba768dcd61e032710fd0141915
0296bf1062d1528b9d3cf2e1b285851f
0297140be4da142c80c2dec3fde86344
029809decc75a9a39bc679910e5cada9
029ce240f77a1d8323bfbf26f0ef2617
02a1fe1f2d442bd00709e458df6452e6
02a43edf9c4f0c5cda5fbf87d89fc631
02ac106466c785448435d1bbe3bafe40
02b22ad54822edd79e9f711a966b0a86
02cd0b5105471a681aeaa1130d3d79f9
02d80b4dd22bad163b2b787c22ea9845
02da2bb08daa48de6b86c096a02e8bd2
02e1c114ec784ad12ae1367eebf02ebd
02e50adfaacc05c3d1b3733bccc11239
02eafd15ad3a294cff66e198dfcd9411
02ebdf3f1de764d506f5561e7b83e282
02f112723f9197a2f2eba071df6ea0dd
03162d5ebbf2537fb533ace41fcc7ef9
0322c815b89e3f9e435ed4385cc07121
0332f6d99bdd65fefc05ebb816b6429c
0336dccaef721440e44d6386e1fd5c0e
034021fb99fdea3069e5bdad7b64b7c6
0341dd824cfdd0b2a38d1b5a2730d75c
034e9cae24f95304d2d72a39d759145c
03579
036ba64c2503f9ba3e6c7c6840320f06
037610d09994b26698a3f91d730a4db6
0385b73c2fc35845774104872423a046
0389d527aa5762e369624277c0dc4df5
03954fb604ea5c2d5e19eb114f8a5efe
0395fce121ba1fceaa825d1f4554520c
039d0ca486dc043f20d0aeecc2a410cb
039d55af66423dccadedd323aa2cf8e8
03a170c9871a180ebb02fbe62ba11364
03a7ce1aae4628c61900e1751dd6f87c
03af647a5f68722b758a7e87d603daed
03b382a7e8110e18bde6242f8052b4ce
03c1c82f22a41ed8276c5d5b015a7a7b
03c654b51652a1cbbf24e90382812a0b
03cfe1561f4185bde144e2bd1f9b2654
03d2354669740c728d36dbe44e91bc65
03d7bd0ce6c0308300e47a012666d394
03e0523049628c63dae90016bb0ee11f
03e11e59d279b30867c4fa79618fb7c9
03f407eb45606d1adc841bdbace97e4f
03f63167d570e6f3f91d19cdb0e3eeb9
03f8e83c744638b6eaf94642235112c3
0404d23afe6e4d2099e2a9e3086c1078
041666fa714ec2e6f8236922439db3c7
0418c4e0d69205254588ab68327d42e8
041b133cf1a2332ee812b762e5f28098
04212dc591c1d8de59dd584463e2b2ec
042901e6e822df4c418256a244b76058
0433862ef7bee6c70ace66278a742040
043470fde2bc6a7dea961b8a4c89c135
0446d39d4c7c7026226f60327beabc33
045d1e326b1dec4b23c37dfdc57b2e55
045ed9f8df340c4aeb7148f2ec11138f
047333cee56b97cce9800d7569f2823f
0474ec2f9e229a3dddc7f7fcfb15b054
0477b38ead14bf03e2d64077372e3164
047e9434ee795630177b932768a71d29
04854a906095da3e84f037ae3d044f3a
0485d4086dbe77875a8b1e56e7b045f1
048c1c4a4ab86e312d311e7ec53d3bb8
048f0131528ba27bc56626fc8ef01ffd
049354f3b3a4be2b1fc5b9922b3a718f
04ab8c80afbb5baa0cc7349accefb818
04ad58a1e0a921520585e2c4c3d832c3
04b539633390de760310bf549d00fe91
04d3641e6d707513cc3ab5e213bc7338
04d39f034ea8734a666e3af1ab09cd9b
04d7a9c3850cf728ec90aa963ef20dc5
04e3b73afc1ba4b2a3a897bd16979143
04e844c5ddbcf3f6089908bdccf1ea71
04f4fbb3c2cd59ece492daf67b137d47
04f8810f0b6a7bb83cf6d9474c0f9387
04fb50e61d959f595538b38f92bc0c62
05033e976755412ad0be05b3c32618e9
050f056bd043b02142735ef336f56149
051165908f455c2ba0efc5fe164b72b3
051b5862dd0b6e9f89922da9f415a834
051c5163dc9eeed540622377dd433122
052172121eb816b78166a049954cdeef
0524b7e71bce3bfeb6904a57cf69f691
0524e4da8f68013e5d2f613249dc96a3
053cd6a1a847ab99ea5081d6c480a5ea
0542d8536d62c8ae834d3f76f4517715
0542f5536375de2b0a18d97980779dcc
054307f7a87b1cea0c159f47e5154723
05458d76142d61c9cac7db22418743c6
05471cefe9a7be1c501d7d5cacc614ff
0548dd2acbc129cf4a0c24288fbe14b5
0549cbd1fca46e4bf0728725cc6d80dd
054bfeac6d5e8c2c0e512c400ae6456b
055244d9a15b53dd96b75ca143d2db38
055c873ec6cdd1237818cc2069b03687
055d9560971aad9238eeba28e1aff10f
055ff12bea0ef939876e01c2a09bc274
05644
05682d774b9b1ff322f00a0e6441a8b0
05697b51a86f34de277891aa322ece46
056c26d9bc73c277b91038a409d7ff65
056c598b0f95fefd212c95a96720af1d
0574f9b5138f84d78199c3863b65e663
057503d47a990bd04ce77c0c74790b47
057681d86a4feb7560bc49f254f6def7
0586b68389c82b2e4d5afd4653f9cde3
058f0fcbebc18deef9e825335816fcd8
0592547a46e8eaae269e9f71b000f30c
0599daba4eb418666b8eac8edaf920c5
05a7121be240a4d3b6e98a6eff911e07
05a75f9190573794e927f11b5a5d8d01
05aa32d27b620f92723f2b9cba864e10
05b7228412ce927e8eba53a7217f177b
05bf8cafea859b8d51b8ed7af6d24479
05c0977cea3691a57dfc74f2a03c3d2c
05c2ea55b5831b293b8e2669f91338ac
05e0e56c6ffc2e7b9a48b1b5a7313936
05e81bffec4485fdc80204c0c9d3c979
05ef57ec0ff4ff3270625c5eb889a91c
05ef57edca551fa07b185cbebea875b7
05f415a9b62a946433124c46cbeb24f5
05f71466a02ca332f975740fdf8270b1
05f9420f82707ed3559a7579237d137f
0605c1e25c102ce9d8245530182333aa
0617e02ba28e755520178516cf54f50c
061a94822bee6090185de2c5fbc559dd
061cd54a8de7cc5d776a5542c2a4a6d7
061d3e4f2a527209a0688fa64fc3a10c
0625978630affbe5f52acb5e679d567a
0626d7d3ceabd537a5a23e4ef0da4452
062c92a669d8e4b28cb9409bf97e681f
064159a988bfb00cdd8b86592f156a1d
0646cce6cfefb31db271af690c670344
0652013d877371ffc5709feda51369fd
065299070e94b7a9f8521d2fe02a5c78
065ac48a64f154f38e1a8f39cd6aaace
065b6bc2597095466f46634b78089818
065d8833b5e6d2dce0bf4b730a73ffc2
065da29fae09fc46fd89f87f6d619af6
06637a5fa6db456476aa24cce139c4a9
066d82c6ce959e2f416a89da263f5061
066feedc009c96b0bd4c7234a010196f
067a4c0ded885dace93174d51fedb44c
0685556b32380c579309ba490b300b4e
0690be1499a50c6b0654c435497f6244
069fc19ccf586ff7726ab7a04e7c0f4b
06aafb3006ce139dd3e44e56e1307def
06b128ee72f9e114412dd0346632a2ca
06bd536eeb5b3c3ee928b9a1656371cd
06bfcc7fff010464050ac07bcd69ce13
06cbf78d7ea6a681769b8dc3ce88f417
06d16d0ffd46d703693727f9988e3cc3
06d76a937b8c302328f44c936b9120fe
06d819ad87323ffbdddd0bf6ea5d66a9
06df7fe5c23c1553aa2090f2705637fc
06e4addfadb430639e60487b277f0f00
06ec1567dfec9b345939c193d7f0d2e8
06ee0aa62c411d5508c4d429c725bb09
06f5f516b8bb4e910eeff6463f9fdd7f
06ffb75232ad6a28529563a3beacc190
0702405b2eff1adf6e99cc1886a7c061
070298f6d57e8e2d64908c29c1cef861
070c6ccfc62560bc7c2f0f00833c7035
070d3246dbdfc7136edc821897a4b4c5
07108c35d18308619cdf7edfd342e6d2
071adeb30cb676254bebd96a21c96b6b
0727f9d17166b5f0c1ced25dafaee6ab
0732ddcdff513f218eaba6bbfa3ec39d
0744958f086404bd6d7740a63622b3ba
0746c368e45be6494af7d8c8488aebdf
0747e508446ef732241aaf6b9ce38f2c
074893e3c1fbe2cdc155027623c1d913
0763690998b64ef91480a20534bc8c41
0770a22ce66043902621ae5db8c0cff0
07766e7193f49024855bc83d61ce0ac8
077bbef76c6b2e1b4774f1ca4d13ed5b
077c533d3500351c56699309de87e679
077ccae1ef65ca78edaa14abdd6a674d
07861d6fe25d5f7071e0a46205cae687
07873cb0eecd30475e9314af32b42c7b
0789e73d30cbd48a612dc308e8bf76c0
078b9bd548008befe849f573834fb2aa
078cc6a44006d9fa5a3db9bc555c4ea3
0791019c04772d87bf469ff6634193ab
0799d9cd5be64af9c3c2e25aff599232
079aa94cec017867ad1259cbe347ecf5
079cd84eea591cfa77498ffe5173478b
07a9173f63bd1c7f2681504ac1c7b49f
07ab2ba6249945ea052b34ad6393a320
07b0bf24a6c32012c5f9a302a7f34c60
07bd70a3bf91ba88f46717d265e72603
07c1133f6c42e330fa343ae636244129
07c60271bf5e97fea8253aed2994f7b3
07c8215c611efd4421d63ee626b79e93
07c8b61c5d3f68290e2ad84d61540770
07cfbc3f2dd0081eb3d692d1c6581c0c
07e1aa68188824bb60fa5d1cbeb1125e
080dcc2f871caa9082e9eac6b759dabe
081a0be9aeac931da249b28b1a2a23fd
081f653a57334c8f1bb43089dc686120
0828da88ad3b38fee614d03e0754151f
082f8e3e28aa8831c8bbc93b59fb32a5
082f9f6f0ccc0ec317071356cd893bb8
083fb61ea88c2d917b72f9c8824ca58b
08436dd24788cc46ca0c514fe42c7088
0847416976cc2f6fc75b1e77e59a4da9
084bb173ddc6c616ac01b25d5cb171fb
08584fffd91e4bf457891456ffe75641
08591e05735b65af1f3dd311411f3ee3
0860d0dc2aec963d8234a8d2f8da9b4f
08702bd3867a3181153b49aa14b75ba3
0872f78787499b5f3e807f2d5aa7329b
087e3d8b764b361f43e68cb864cfcf9e
087f74a33fd825493065d28319ff2b26
08812dda5350af7286d422f23d39b466
08841bce9260218366e9420072b7068e
088715989ee5139f2bed5310db6a1278
08900cfb78504eeacebda0fabbf7d0f8
089b4ed00ac10a06d389aad1bd8b6705
08a081152bb9890c416a8234c1a0c3b0
08afc1212d38c3f55c0ae6ce56c48e74
08b7508758f470768f136a6ffc979b1f
08c30c7dc49de2261a81925e1cd4dc15
08c597fdfbf0138a4b008913c5a593c5
08cb10f430448ba803dde28cb723b3ee
08d0c241679b3592760c60b171da6841
08d394ff236c1b5ef915609c639933c0
08d7ead9b09acc64f5a4fc1051c21ca0
08db9f9ae4e7d737653b34332979033e
08ddc27a8bafa99515db5a19af00af26
08de8f997d79fef3e221bbc02694ec3f
08e7ce20234b9b3549cd551ab6214bda
08eefe322b61e03574c5543f65464e63
08f1d63623b18aee46be89424fda3c56
08f2a0646b9beb2e50fbea8424cbca1b
08f2fc8666a5528b4a19e5bae098f8be
08fa72dbc31dd0b9a4a3fa8a1844394f
08fa759e9d965814d2be1202d55f25ec
08fcecacd2bb3fc690a3b8e2cd641d12
08fd65a377489065072420a59eef8146
090339abb758ec5383843b875e2bdb7d
090fd2b12e08932eeafe4f893724ad4e
091137e84e4642abbd35777b1fa33c66
09129
0915aeeb142ca75befdf8a06b4494e68
0916f2dbd799ea45c7bab6c8d8f89465
0919388c6978236768dea968a9c9c842
091a2db2bb08c24def3ab190ad51a2af
091acbd09ad5a48680df507462c5dd51
092134a2dc481b314050107e3cc05158
09231baa611e15d53c07d6a612d3b70f
0927d5f85ceb2bcdcbf17a081f7c84c6
092b96fa3777d92003dfa87f9fdb1a5e
0939425df9461c1662437794d7603c9f
093c7e04beafae50f34ff89235760bfb
09673b2d5e8a88770a674a1dd0913c5c
0971fed23ede379abd34c9ccdeca840a
097b5f093913968aadfe1e5111f928c3
0982e0a829f56b9c1d8168a852fac3f2
099390569d358c4888773f9079253411
0996f6d4b520ebe689576c6d9dbd685c
09996440bf69072dc1e34e038b56b9b1
09a0037ffb7e794c7b7e9be576b6f976
09ad3403d7c0e12391236964e6dfec50
09b017944adc60878f5791b57bbe9c22
09b061765cfdfc6d7f77ecb9c464fc26
09bea1bc4db9b0690e40df2e5bfa57bb
09cb46d3c663da732698859059c3f8fe
09d03a1a59780df85c4347e54c855dad
09d1901019120e225a976cf3fd8beb7d
09e2267fff7d73e8c12e5e6031d9b9dd
09e7c6021be1edaf39a15948a2a63872
09ea1248527652633b49b77cdf47badd
0a02ca258419f9b9caaa93b6872d3ac6
0a07ed1d2446c3dd96493d50b91613ab
0a0801c552c399241c696affef591b63
0a0e426efd52387649039dc2639bfb96
0a112745a9055dec53c2b7448be50bd1
0a16eacaedd9d8fa9af529e950100040
0a2b0c72faff70ac96e140caa2433863
0a2be6dfc71550ff99d55a8064b25d3d
0a3664db7ac5ee1313741ef74146ec49
0a379a68e06317506459f0fe9b828cc6
0a4beb45f1d57748202247aa5391ffc6
0a4edb97e883b5d6818db02d1fda0ccd
0a50bfcd377ead6419487bb943a23002
0a5113758a8c36845b49f844a6bc99ff
0a60beaa2239f2f773271966b8e0a939
0a6324fcd65098b9755764aeb411232a
0a63f29f9016088d6e94ece59b8c53a4
0a665890521bbf16c77d41ac38dc2972
0a679e57237fc0cc6479270d356eee80
0a67be6ca5e41cf92bad26695ef7d04d
0a692a69151bcbd243d0f14540197f36
0a7a67d826eebf62cabf6252dfb6d5e7
0a7de30835ff772da25dc51a90ca1060
0a7e4a7f65df4e501db57822cf6cdd07
0a81fa475aea43051192272c8efd8db9
0a8f14d20f54ee7eee70321852db2bb9
0a94dd9d22143544357830709465ee66
0a9e5e73c8581da004c729f26fc1818e
0a9fd42f4d277de65fa8ce9a569ca595
0aa0604527a868434d7e53b2036bd18b
0aa1306b8b1e63352a1d60423c2c5708
0aa51a9c45a023683ac49ef4356a3d04
0aabc7b6e8976a0c97ba956be7bab3e3
0ab07c18aaf3b77375ba9bd64dd0c7eb
0ab1dccf26f00631325c9ec05d073c18
0ab44137c8261982aebf3f5e1f42b399
0ac4985c23cae77b854fa54e87dd6ab2
0ac7aea86db858c892957d39145726cf
0ac919639cb4ad0b6f6b0095b483f7f3
0ad1f198e08cc49f0c035da376a5f0ce
0ad9cf861c0956e9690d3ffe28b17507
0adb7c4884e1613d7184db3d9b13512c
0adebc61c3f556befa46c46b4d50b13c
0ae5285b2a5b076efc99319b47206560
0ae6f3877ffc74fd904ee8fd99e289be
0aee8149100de6d4b1481ed31e79298f
0af30455d337fb2964f7fa598475bf4b
0b10922a0e23faa920aad7ed0193837c
0b15f7cfb90fae1b2c05fe9911dd31cb
0b16b84f10205ebd657207832d92871d
0b19fd1520d110c510addce06a22a474
0b1c8ca662869e2fe324a993390bf831
0b210ca8b325537eec42dc0e584ef3a8
0b25e02ccdbe3ca740318c3bc4e6000a
0b29958929037f709b08dcdce2635555
0b34b1318349a8d4c1a9d86718c9d4d3
0b4bfb9f8ca830f723c165b8041b24a5
0b57b795c66b07394ad73f3d66837080
0b5d7068793d788a136a80793aaa6012
0b626fffee906d26a1324e3cd413b2f5
0b75c560a4a329bb5a5d96e0b4343b39
0b7e70492f2bd6ac6ef1d980fa7e923e
0b89b20d813ca64c14013855a015d187
0b8e4f11213b4c075696550fafd79edb
0b8f26d9b93b6442314e381c9415a75f
0b9914e6430b609ae48a02f4b79ec5e9
0b9948a723a508a6434d737c964caf5c
0b9d8e8771b52fd5dfb87a110ff56355
0ba0f085c4088c20ced87dc053ff888b
0ba10749dbc34f0ad115d3490ffeb21e
0bad449670ef8d7eb3abafc20974df64
0bb11ff85bd97414e5d1127b73c4b073
0bb193587b65ddd2e5eaa92ab7e4718d
0bb8b22ef15aa46b058204b80dd49d46
0bb963e3d94590a8b3a7cff5f801a219
0bd47f67c6e575c6c0a5b282a78ceaf0
0bd4eee9150b9d63ad766d0afc637113
0bd5fe5ae33ac2f1750871a9a814a7b8
0bd709dd8cc63edcdaa5b043a57fa252
0bdd15229749932b6c860b171be7a8b8
0be851f1ba3ba001709960b31456634d
0bed4b99ca48e203e5f9634e2cc46756
0bf0c2026ed6699487fe654b7de8f0ff
0bf2da985aeaf8e98c7e919b44b52817
0bf3c1bab29f7ef2f47de9b054241334
0bf541b4f06918a5641e1ab2ed4ff89a
0c0337b874ae0537c665d0826f3844ee
0c09896c7dbf2e0e068f3c6d4081693d
0c13ce5ca702e9847502a032b244557c
0c1f5c2c271425939fedff77e53e3ac8
0c206263ea8a64702d637f21de7587bb
0c2167e85f6253d8f52956eca1a88731
0c26aa6140a0891a30e74b00a1aaf155
0c30c51170bcd2e0d6d8a8c3ce495724
0c3edb16fe1b657b1f29af5443430016
0c437fd14181d0a9d0ad4add1ba4f99c
0c450978114fcdc4414849ba28c65178
0c4810fe6b854a8dd9f1d4f709dbb094
0c4c20a4858269fc4ac07d653682f48f
0c5528873f0b125ead87b8c916a21691
0c5a1bf6b8bb29b066a61e54abbe568e
0c5a2df8614446b973ccc1e030178a74
0c5a462ec4f8a229cc4d610441f83298
0c630283749282bc455353e6dd9e9970
0c644c8c4f5acbdeefe3c23781b9bdd6
0c6fe80a261e8ba59968f3c004e58f6a
0c70f1d26d0c8685d4d37897dd77cb4e
0c78dfcc39d7e3b417842b7b4dbe23a5
0c7dd51dd7f5876e4d4c1ada86d4f8e6
0c843bb38db76beadfb88618cb297061
0c8c8ed83cb66bc6ed31988a8fcf5933
0c8d554a82c4ebb0920c30b9a5ec9909
0cb12633b7d99cae660244965a9b4f69
0cc4292349bde5d2ce9ee1a59ca1ae9e
0cc7a04f82228bca749a89ca412304c3
0cce7e218448516fc5e8df80680df288
0cd41dc22f72b32f8fc26bb88de6c2c8
0cd756db83e452302a40e8a90dc41bb3
0cdd5586326885e2c73a80782ddcbcfc
0ce848089ee67d798b0c4a9788b8e174
0cefea8e708c4ca59c6e3e4a88bc59e5
0cf84a997f23fcdec80639c1ddaa1acd
0cfd37e75253d835896be1c42841e6a8
0cffeffdcd9f8581c9026917ee289faa
0d04c2c3b1819ee67e190c88ae3d9ced
0d0b1d4a782517d997d5319f8407cc50
0d0ff25f1149bc27db2cc5d8748f03d8
0d2dc5f59e6ff7a235d6d02c3640553e
0d34014f6fd2f75efe7814129cddb9c8
0d3601fd7d253e1cac6179f72c2e822b
0d3a5c24d56833adcdec46097ffbd1df
0d3f39dbe848968a68f4a19606e63a17
0d42b33a47c0a56e2a11c40b8ecead00
0d7c4c4d391a9db405f2571cddacf18c
0d8924c94493f20313fc294b1f4e0f4e
0d8c7ccc64acebf20fa14f42814bbcad
0d96916f0f0fb38cc2f9b88dcc8ed8a1
0d9a350943e5516ac622879d122aec22
0d9ed5a1ce14a819bc8bec53d8bedf06
0da1f24fce7f9f4e950da19d5b722927
0db43a2f760b9c032719b720d7454849
0db50e1a8ccd036840d797d750570047
0db5cd99681083df8f7d89a79cc7527b
0db95de0dd2a7dd698b40894e21fa593
0dc9eba85fd925e51b83cf13a44c0f04
0dcae174f3c9bf3d4b6ae1866e88178d
0ddd43842e4ee447f55f850676054c02
0ddfe780261ec52c166afabce1ab655b
0de819047275f6cb46f876ce054d194a
0def500e40eccbd122589cb9663c97d2
0df542911e9c492965d5b482b703750c
0df79a7bc21c0ca050bebaa34d1ca94e
0df843c98e030273c132a372400700d4
0e03212485fc695ee0d7d3f5a8ce65c8
0e0630435a13c3bebbda72bbf62abf2f
0e1c7c41bd0327005c3d091b11f4cd31
0e22cc651fefc4a529a2d5c41f4f3d79
0e2a919468cb875eadd9e7b584d4298a
0e34eeaac372364e7bc1d21b3a157b71
0e372b77a8d965d2374ef30601c3ceec
0e3b416b8e57b7ecea5fb0bf3aa4f513
0e4049af27182d8f3fafe417b8d4efd8
0e417e4344a72f9105087b46aa1a52e8
0e53e41e2273ad449619b7b88aaee72d
0e5efd127181210cdaf5e63669125a96
0e6359216696a8aa472e8c782f5b5ea0
0e76e10dfd250085cf25c37615227785
0e7a20289fb0b8751e7c1f7067792c00
0e80c5ba8f9d8df0f741712c8eb0822f
0e81aa334a8e2c3d556f634b1db96a28
0e84581bdedc88b43ac79ca76813812c
0e91618490e9f5b0a191accd79b61b48
0e94505e33e91afa649f308356c869f9
0e94efcb6bbe45a29e1fbed1d48e8fb8
0e94f95bec14846f8e50aa0dd9a31263
0e9ad335d7afddcf7b581ea1bca5f878
0e9eb5d0299b38a6667506e0442764a1
0eb443a59d4530e994ea9059899d47c4
0ec175822f2fe6b60cfcd8fd4b67238e
0ecc2bbaae49b21e10528401b70adc21
0ece3a41e33165468ba2dc01fc5da0cb
0ed7acfbf1fd25fb3a8db05180cca4fb
0ee2bf91473bfdb9092e6b13316224e1
0eebd759b96de5546452d639856d15e0
0eec7df770ee630d6b61aeb8a048ebe7
0ef462a276d88f52d2cc834cf0022a43
0ef6a790cf6dc21e9ffff1eef99aafbf
0f003dcafe2f2f21b43172a937ea38d3
0f0c6a63e092c61cc28f84497b446d9c
0f15d3be3480faf77741f64d69145e13
0f177ceaeab1b6f4ccbd4ced192fb414
0f17a30f09f33d05e4feda3db3ce980c
0f19903e6288cfdaaa30b5c7dd2a645b
0f1ca5797412656a7c961740f09bf917
0f2283b115b388f97ffe31cf404a5da1
0f2d737372db7af1d5e5aaa9f88ab582
0f32ef8d8ffef9826f1385dee63bf305
0f3e88d756fd00da917c2cba41167866
0f4999bd3453cd233e8db9dad5436f8c
0f4fc55f49e9c6a9e6d504a7739dac33
0f5dad98d4994e62a14270b538491495
0f6128bf39bb047f87ec4b3024a9d2ab
0f6dcf4f21e5937b16d319bed5b434da
0f7dbab78fc23060c58a94eb7133ca0d
0f9114c8d6ab0546df955dd893614932
0fa062b3480f0056cd5d22201b9cd0b6
0fa0ce08447b429a5ff727b8c0ed2f22
0fa9371eda6e535ddb83af052408c7fc
0fae06dd81f2970d478fa3ee14959e18
0fb813ac0314ce83a545f7bcd337e733
0fb98fda6cab4899698d53f43cd3a324
0fbc93720aaae2feb7a1ea7b2e103859
0fbf692569649542b2dc7d85d9ff3aca
0fc1ae4a91cde44f44ed8d1d435ad5b5
0fc248bc4a63664bbec6bca6c3d44b40
0fc53457bd786bd40f47a5a4aef264b0
0fc609578fa741f52463217ff3f71c79
0fcc5cfc344c158b95fc07d0d733543c
0fd87553cf31edb520c977bd0e0dcc8d
0fdf2b9f2b22fcf0ba49a1ebaeec9224
0fdf8b096fd62541892638445477b6ad
0fe2fad84c0755aaf43209382c84fdbf
0febfdb4cd9a8e903df1af77dab99937
1009dfa21dcab4a8fd0c4cbbde02ad81
1009e0b57eb64cf85a404424b9cfdc6d
100e19e983bad270aabbaae76908e1d3
10163612d039a2282b2e61a9ff761e02
10165aee6d5041b725a8d53a1f92d273
1018989a058d94125b6259964326d27b
101c3588bae11e2c88994cff3b5ecb63
102ca1ad7589da25c303a5e6bc9b010d
10322bd10bb68dff4693db2499acaa16
103a4d511678890b211b0d848f48c059
103ca400d1fdc5b82bed288896350fca
1042386cdc39c7ebd5eab9675be31166
1043cf1741e2651d0c866ec2c3a0b981
1057b9e88c0ae87db2b1c9b70c2b57c2
10629c398e9891ab6b272f77445fd810
106a114f15cce5adf895e8cd2f8a2f93
106d0a4a15a0f4c62ec167440ef35424
106fa7d3170ad1de8c3b2e3c0b532539
106fccce0cb6232fe6f43f8e506327f8
108da5134d0bf47219f00518fd1bd28c
10972a93007ec1f09deecdc76505494f
109c5a189616fc73bdca9cbdf9be06e9
109d6cdabe32866eb5ca0258e1c6e231
10a225071f0319e42017a24649ce8946
10a4dcc13bf0795bf0007e97124acb3b
10b02a11a4cfba60c05de774974acb1e
10b13e4322dccb0c8727a48ffc9b5528
10b1bd6e45ef6aaa806bac7ed3434d3a
10b2147533804a1b8e355a224c80b206
10b86d3dfbd5d8206724a792b112813f
10c7cea0cb4b9a861a02ebe70e20ef56
10d10c587a3632cda8e2b832a71f9bad
10e5a7becd67490003d9fd13b6073f24
10e6e838e8ae04ad33eb58c5e977485d
10ebd43132da1fa6420982bd4fd42222
1101ca42a157fc8e1ca57570e9e3cef4
110d6e2852d9ee20323792a363efdf11
111e4cb2f797e70b25f715f83d8ed3b8
1123e979af5620920df0137dfb333eb5
1125906dbbfaa32b9998ea9e6c7108e2
113133c31a748b7792569e30a86aaadb
1132080f27bba20c9f9ccf664432c39b
1134011255413195
113a6476f5d19ceee5604d156db9414b
114734e5af18c5564dc9af44849a1da0
114d60b5de48ef2674a4e4e8265ae48c
1151f8586067057eae840cdb3de59a89
116d28aa34d4b535ceafc84f07c088f9
11789ebbabc47e86ecaf98f1f1406487
1188c5eee12d14d85879b025daf48038
1189380b48522798228c00a83580566b
1190c478e11c9965d14b1e4c9ddf3f1e
119a93781dd861554baeaa91d1463e77
11a3784812cc4dc7e615b53821899099
11a61a6f78e24cc996a7faa24abcfb64
11aaa4600fc049116dcd62f80753b54b
11b2937dc1e0de1477cea0239896622d
11d616b63d936b4a3628c0eda14239d7
11da0ff36c398ff363c2e0111b38c277
11dd5fce162df2199ef28c695aa0a53b
11dec4e225f0acee4a376ace1e8db323
11e5e1eb7c348c12ce9fe2cc84052cb0
11e7f05274d8ba7e2f07214b7e5af783
11ec08b20f861307bd23ea257d1da36a
11f0a91d8bee7de87e5d12139e79c27c
11ff4ff76ad1dff25f490e04b7a6f535
120d70448a00426ebf5fb365707b3434
1214222ec51da85aa1e9e48d6168be2c
121a3ab631acf56548e7ffca7194af4c
122116dcc6e321e320a4a03d87886829
1225ce77a0e1c1e7e8f7199ab8b56d15
1227578c54c55977e430a651a2ca3cdc
122da41ff89f04520fe16422a9ddaa86
1232ad8621b6807cf24a3eb2ecd431ae
123777a2fb6159ca84e98e7d59966d1b
123f835392379483df2e226946889bf1
1244979ba4dedef03c0e782b9bb6d03b
1253627341d4856d1147d2db852d4a9c
125d55ea1ae996a372c61ab14dd82c8b
1268fdd3103aa3f168138fe2ff1ab0bc
126fe8267447954e435e85bcdba8f3f3
1275a704479db9e916f1ed6c66ae2544
1275f1a9f1e233dc0b31b6b6fdd5d7ba
127d21848e20d668712641bcfa1e0669
127f4d70667b77c7f76fd26711e02bf8
12803ebaaffb512cc98b1d0e39c90741
1287a6acd26c1fa6e6bc127ac5ca247d
12881263f3006b4cf8532f6ba2d587c5
128f43fe49af76c18a693b44d2891c73
129a0d47a6243d34940100b0440cd13f
129baaaacab7901a1ad7566413fe8617
129d57de369986585a3fa56ccc7d0a7d
12a86443d87d5243ad1bada3d6bd58b4
12aa42f1041e9641b2c1f14791ea94a1
12aba6582d43e4d699e0b80b3db023e5
12ae3c6d9f5844426b71a8ad7585986e
12b00519688a298ea123307d3c7ab3b7
12b0ce4577f9c4556511a3b7529d72f6
12b75baf305cfa857dd9995ed36f367c
12bbe33157511c2e266076b40f4285ed
12cdcc414422c2d3a8d30987feeb1f47
12dc9659adfc62f78939a072d52439a7
12e0103ab4498e9efc6f255cca84e055
12e8a001af18a93f7389268e3de9dcd2
12e90a2f13110908e01036bdac2a9d4c
12ede8c4965f7ac23644f3c187039354
12f63d11851cfa1add4ae35efcb767e9
13007323dbf1dc88db3d1b44d7c097fc
13061a78abe63ae0a0367e99e89444fa
13078824320299157c05e1cf379d3bdf
130943f505f983eef1c3276ed036f026
13094c4c60de24f2701514d740ecb43d
130e8d1ed78782fdd74866ee6b598eef
130f9593d83499b6eede90369fa7c938
1316624c774bf57ab982d09ee5676b8a
132101224ec9d147ee859c90b21f1d4d
1324facb6dd929b6df2714705d642bc5
132f1ae18ff2fd45e66766007663cc94
13367c7b8a45c4904319b0e09a315285
1338b214184b4654295dc0771ca69fa3
134027e1771d4b67a6c73fc3c996f2ed
1346d8dae91fe0dc2e0d7dfb7de7c4b0
134a840578f9defa30b492eba566e6c7
135cbfbf3e34aa9e66e68da79ae53a15
136487a9123f95ca66d20051b9690c2e
13710bb8e1c27a40081aa3c7c49c5c9b
137329dac08717ec0d7cad0a063fccaf
137942ff24147a174d8f700f1f67ec70
137c0bf806c087a786bf0d1deb154e9b
13810f4dd7a12827b56d2ca6bcd0032f
138cc7ee5eaee9bd0ef007115b39f1aa
138de4f5e91286034c9199a14555cdcf
139a9786498c9a05f3a76aca6aad33b5
139c493f635c41888f2abd18b78bd39f
13a89d86f539ef16bd3e07cb6194bb25
13acf2134077859a5235ac5ee8fd9dad
13ae7838a5d6e8dc70be8796df5ffb8f
13aefb4b884f5c80128898384e18f035
13af5962e3abe495d51c14dd20c55719
13bc9815aaaef580b86630f9fa39fc87
13d02dff4aec599ffa357eb06a42985b
13d14911c8c032d1afd30f4b7c41a1fe
13d65e1ad56e3144d8a757c29c67eea0
13d7af3754794bca032ef76c045228ae
13dfcb4dc23858eb5f877c488ff2e175
13e6677d0b7b779bd4fdfc7639acba32
13e67b10549fe409ee2089cebe529814
13eb7b2b0394145105d0fa8f4635f5ba
13eee2ead0341a649b7988c76a960273
1402557442e62e68ea77a0a72f2d9477
14058a5dca274d67c511e4f2f1df3de3
1408f873682c086b262ca2feba7ebe42
140bb0f311813a6bfddf515a918ab1d3
140f62f0d10e177e6bd15f28c0dd0ee6
14100b95cba5472b77acc9414f29fdc1
1416162aca95884b1ff78a9b5eeca9ac
141cd2b57a50bcb0d57152d9289c984b
141f1c1cdcd58464d21e860b19035218
1428c0b291114be3069778c24947adf9
142cc06484d8528e7ce63afb946413e0
14322ea638e342b2f146768e3fc5f9f5
14352c7b61e43063d0d449e9fa864a4e
14372eafeac903eebbfec892caba3901
143d933fe3aab592aab5bdf3616d554f
144a5e579bd4c33fc4241fae58013030
1454676ba5f765694ce9cff0e0c721ad
1464b8b390f148071ffb4d87f3ab8dec
147af21ac8e543995a232c7043b51331
14866a32caedc346f00c90dc76e7a0d3
148d6403cd0c4e4d475037ca66f0cbba
14a386990982fedf9f0ffbfceb16a1c4
14a40a9f9f61efbe5c1bf2c7f081d657
14a4b32bd026428c63cdb400b8328be6
14b269ca69136d1636cc3bc7a03bec81
14b754dded6e332314138025eb068fa7
14be20ef4d073ee200c3c8ecb257c8a1
14c3d6df1f434df84debb617bd036501
14cbf4ce70b62b0c7f1302bba64849d1
14cd0e3c906a98031f1521e573304717
14d4f51d9c5a4befeae56c532a499aec
14d62a7dd415d1bbbc24108de1e1d924
14d7d77bc419658d197ddee01003f048
14dc761f107918bea61734f8b6c0913c
14dcda506e6942373b5adf70679ded89
14de58886adea39f3ae19e069ebf2f89
14e2726a8f0c45fc0a5841dcd8615eca
14e86a51b9f8c598c838d6fce00b557e
14e952ed49414d08bc9916d7325f8400
14f0b55ab9816bc772c8736d0bd0468d
14f2f96e1d2b51f03a6c4dfee2b7c440
14f4f721a26ee9061cc3e2cbb1360ce9
151a465ecc5d86c46ec6c99ed1534dc0
151d0e30d885955592f2f56f5ccdec27
151ed6ed39ff4fb571ab0b56b2423197
152029692b04a564bb1167a979720eb9
1526202641d06aca3e1ae97fa3d1279a
152f7776e35fe1c0423d9c0e74ea7a6a
15342130100722bd0a3f2e04c4922ded
1536555fde843bf4b5e03bda1d2762ef
154197faefbbb973cc708fd963799ca3
154e2b161b2093b2e7b1017864462f72
1559989fd7706867d08f14bfe1c7a234
15675e635c04b14d82c3827664a844c5
1575fc32121e584c28b1d8f6627519fc
1599976f0c1a666c8ba5aeb4d65ca686
159f0cb7c0b0656a364a33c1c83a786c
159f64bc1cc7015504c311ce4f550051
159ffeee150bef21492c8beb437fbde6
15a5039d61bf6ad28c8fecdd40393cf0
15ac96063243258e4ccf6e0eba0ecfd7
15b572c9fc3c2d4f06b84bd5d1b47f41
15b584a9344f10c2716d5082226a1d94
15cbb482dc6d2b0a0c7552b7e75f5b37
15ce968a1968c3132a6dfd05b04a3cbe
15cf77dbd73ebf175a09caf80986a5ea
15d85553423447e38c26267ba2ceced2
15d9458dbc3ac6071b6393fac1cdb6a8
15df7bed514c13d75f52dbb992a6d7b0
15e37779fbd04b591a2ec7ebb93c4e12
15e3c5f8b3dff5c2b1f9ce67fae76d7a
15eed678e876d1bc235525ae3df4f718
15f13afa1312e14eeaa9778ccce22da7
15f212e1b5d8b521ae96414e485032b7
1610cf9c043b6ae51df0d0ad9fb92d3f
1615ee307fcb787fd033c434883ea9cf
16190d8590494b52a7190cd5e25b1be8
161aae204453783afdac3cfaaa8b9468
162d0ca667eb09257acbd1b6200805ca
163c40efcfdc402f4d4e882675e7d15f
163ce4a27e0e15ddececee4aa75e5845
163f3a267dd6d9fbe7503e66765af263
16544eb603cada12c21b690154e0432f
165467579ba40e19ad7514e4dd5213cf
165a244920cf4ea83d1e05c7cb13587e
165f90a2e040e4d99cb9bf978f0607b3
1664da5df7bd8836fb285bd3346a46b3
1671c8a9ebfc3da6a24f55d0ff6d591c
1678a30cdd2108d791c4e1c62c4e8c82
167f18549e563a9b16c5a7cc524bf4e9
1681062d5d67e1eeb567e641c2c2736c
168dd8e436ae7a1ba4933e919202c7a1
169831f272b2bc1103262368d2ecd747
169f7e4e9b280f3500557615ab1025eb
16ab5699e55bb5d0017e4eed232ccc50
16ae58763fede6a9a1643a7c5f527d76
16afe6cecfa6ac6b72a7c6271bbfa4a5
16b74b5ebab0b9876b47b9677fab5dbc
16ba4bb66ed6e1a7e3a3cbf0f7b4f10e
16c23772d7846cb9de4aa74a06f34ff2
16c2ea1d790c773ca6ebdc94fefef012
16c39ad5e72a5e258eec4dc1d3ec4bbd
16cc7aa8f419cd34c756890c06f093be
16dd98c21486d59123e2583f84d8f4a7
16dfe8c35ecec75eaccf53b3b7e887ae
16e92dc0b3417b3e929cb4394dc242c3
16ee04db3f3177521ef8757074206160
16fa8bb198a00530fbe6e7659f5312f6
16fd927d8483ed86c9182a328fa54321
16ffff6a1ed5ad74aa274e908617ad6f
170f1b448b2699518c90996683bf7617
1720433ffc01dfaf07e56a4539b7726a
172406545604698428a3a5abeaaae756
173232f818970a587587025f7a6aa4b5
173aae15ca6ddfa8c2db72efe4f74e91
1743fe7d65ad6fed857ddf5cdf3f135c
17464
175d18503a42aeb6d8ac94edd1263a88
175e100e35c1d60eea234be44ae024fc
175e567deda7340e83fd0124148d2b80
176621106138e85ec3820b72ef091121
17678a43cc431de6d57780f92ccb03bc
177278998ad415f61da9de43e748a8e4
17728f77ad954e65b358cb0d5dd456e6
178316f48648ad209abb9b59fe117d71
1785f9504b76c1d90482c086247910c8
178ead056e40951ed3d89ff3eb97e493
1791980cffc0aa6e39ad1f228d47e927
1792e83e47370fd2700fd278b787f523
179ff5b82553162ed28317a7bacc152c
17a54cb7b8a94fdff3f8987f1521830f
17a8ce4ac372fa1c09df0617b0fc62bf
17a9c52c492ca05fd1e275a289a0c38d
17aa2887e8c296acb4c7d4866844022e
17afc0aa956bae19674f44344379e56b
17b0e0bd62feca9e832c3941c118e654
17b7e8b768cef6cef13a16b1a078f6fd
17c60fc1b1dae11c7f8c5788fe6e26cc
17cc5d5e0d0732d3980b4ee8ceafe5d3
17d47c631ad7eca8b3f8005028d5b0e8
17d60f5155427ad323792b6c78972a1b
17da7ce5353de0017a2cbe5da70f01f3
17ddd01b75dfa2aaf031039813eb04ae
17df68f21be269dc82be50d894d7be99
17e07118c5103b5d760defad6cf46d29
17e2b9c6b697902edff11f40e4116c08
17e9896a54ef2d2961ba1fd5675386bd
17ea496ad0b53586ffe705e2f6c76fe8
17edfc4ed2a6da598db742292a5987d0
17eef5e117f73282e651a170e1c43415
17fdbe367cb3dd00fdf1bae1819a4d9f
1806e19a1e223c57962b5391fd54d860
180c5d146725f1efaecdb294ea480789
182096d91dc01cec89fd042066fdde64
1822ae974baf31e9cc3fb0b6bc652297
1826fae6a733eddf20c0dc5e1e6a3d6d
1828a6947231df6e6fcf18c8091b5c4f
182e698c821e734eec0be8a94b7d9827
183087b48660c6b699dd699069ae7ffc
1832819c91d365a19f2a713970a95a65
1832eed580800a06a620de6bd0c3eddb
1839bd75e7c2343eb5315521552aac8a
183c470a0bdb7ef5efe90693867c4880
183d1a3beb5164fe71d870cf0df73665
18483f63cc97295819daa9f4852401e6
18680c79b0b8559003f689b6788c775e
186907a545a42609d16cbdf9d2d964ab
186bec8bd08495b5bd1f109c9f8232d9
1877e0006c27a565730b79fc6aed4293
1879c6c84e7f9a2153160dd859ee2949
188b0c5e549e2435fb7390609934f2a8
1893080a081dcee808058502ad556864
189d298ac08b730f66bbac76ebcf4dcd
18a17809f88cc9b21acdfe7e4ad7a6d8
18a38311cca31b6386f6045d591bd380
18a9e4cc2a7ea09fcaaa1107a57f81c3
18cc91ea4566c1c805ccbac9b93b0f00
18d17a780cb795508bebf1d549260cdf
18dfa1403d04cc5a1f1713f10794d2d4
18f350f462e6116e1384e6c17915abf9
18fb8ab91caf29160b4b6aece3748ec2
1901bda9c6286e46ab235690b81907fb
190253fe33fdbb100f61e9029c8af3d6
190971cae87e563a2103b7606b1ce1cc
190b8587ee225075561373ecc5b89fd1
191292acd4a2cc9c43e9a73c09b5e799
191416cd7b3450dd1afff8f961edb2a9
192d6a1c2b748c5ace70dc732e83ec28
192e78c09a0456ffaff440e509985b51
19302fd530e806249d32484b995a97fd
1935a4b32eb64712410405698d665c98
193c91de21064377edec2642e89b1ae9
193e1a226302f1c2cd5305fb6540ce4e
1952983266e887116ca46aa1a153a225
195be5ee5755feac0368bf05ef1499b2
19695078d5431454c58e165c99c6c5df
196a59befc707fabb74ccc013a52d2f0
196c9dbf2f799d88d368f6d94cced6c1
196d028ca5d1538bd7027e938476ef91
1977c068aefac01620396b93c082d6c5
1979cc3e5f1fa369c09be6cb6c54bbc2
197ab6081c32cdb490b698ad708dbee4
197e602a4f12e6aa96fe77d1f28562b7
198c0c18d2a9e78aeddfa0cd75870670
1990cce8149c6760caab9f903d76b186
1992f4bfb84463e61b64f128a3839e91
19946bfe3d48a423bab5afffb0b45527
1996054cff4506f70cf224d3a386e721
199c38a3918153370c055040548e6e31
199eeac1b8caeac494b1e72ee8de71ff
19a32564d19808b2d04b890f24ae9f5a
19ad0a4819c40f42a35f1006ac2f20c7
19ae67dacd5e11217c9c5d75b6df8edb
19b134412050aa5a8de44205218304c5
19b51eadd2048398e8676c767d1e90a5
19b72e9380f9745a30001b9f478a9b36
19b88071c87b3b5541d36c2b0c916547
19b9d9ee672c2024a7f7bf6ce1c04f04
19bdd1a977dc0ed39342ab42c04cf8be
19be734e59951fe862f91741b51d3a69
19c74bd63434bf172c987a2ba9f1f7b6
19c83078d4a789da7e9cc3bfb8d3664f
19ca54f1e9a62e6ad326df446cbcae5c
19daa675324b2860577725d59da91609
19db14aae1b0350b99fabaaf104f17c5
19e65a8d3d8850d5d79f83231ea39495
19e8e39dfdf2271d1652caefe2a9bd79
19ea357e6561e0f4eb87db0087f8f402
1a00552004d2fd0b45a3678aafdceb8e
1a0b94dcaa12f1c39827fa9df3736a7c
1a1a7aa95f1b499d699dd8788188081c
1a1d8baa10d37951fb1117bd8630de82
1a2151ea78834d5bc4da450316b6846f
1a2c403e78bbbb5b9ffdb6af55adc8df
1a2ff36a2ff45fc1656a1015aeef03b1
1a309512f781b1d9c07f2bb138bc5c8a
1a30a92118f996a811f5c9ba35ce5c31
1a3361d0cefaf9e500097f8b498f9e65
1a368ef3a85286140f1dac23c29dff70
1a4e9dffb562e21dd9e8d87f0acac34e
1a53076f857083b28405076cf2d5f789
1a5914919c46977d71db915abb802876
1a66c745a0631dbd743d5396fa16a5df
1a72850300ae1ef757f1a8804cbad183
1a73420b11849f85e9541241e17d3657
1a9407513c5238ffcb61a4ad0d750d2f
1aa526a694bbbec9e187d9b9f90866b2
1aa66a9eb523abe4557813bfb03126f1
1aaae9cc5ccb8ac7b3b0ccde4e0e7591
1aae1b4cb98f7a579d9b0944c88942f1
1abdc1472f30ec1ed5e666816eef12dc
1abeb3aa6863a74d0df5f2b840b3cbd0
1ac82279a34a11b62701ed04c69c55f7
1acb5b8f4d1ce28a367258d4fde8422d
1acee6a3cb4cc432a45d2839fd99a712
1ad0f51df0d045c6376e98cc4c41af28
1ad249e5f9bab05a4bd640f27da75cf3
1ad29a01a3049c20063c5f7e39f96ff5
1ad7cd50ab428cddb208fa224a97ad8d
1aec9cccfa5dc122b8c453c992acb45c
1b092f8cefa82a51428683a53eef72cc
1b0aa91b5e9bedf6ee388a96209de490
1b12228662a91b1e0e369a6405c05b94
1b127d5d5c4a325e5489a1d79fa797aa
1b1f44bf53352bc94bb1e76254730301
1b282a3e1f44a022eae1854144f5fcdc
1b318c9696d8f38a47715a8ba573d070
1b362c8be34efe5cf8fd754b88f98ff7
1b39f2ff7c5758b505737d1113df6adc
1b4cd2d4a79bd87a63e07d3644effada
1b4f6699ff37b042931370ac8f7fdf87
1b529f2296ce3236498f5dd44bfec813
1b53f6586d140c40fa7aed7aa1ca12aa
1b56e34c47fe322a47a5d007132b29c3
1b576ec1c7d139c4c716be98dfda95f1
1b607f5f18c41675452f4468e4886c85
1b66397b8e2a3bdd045cb3437c28c92a
1b6cbb7540cdd5d725c0d9b46f83fd59
1b78ebb428b52b1a5c50d1f7877c6f71
1b83d91280c7f6336c1af92bf439a3b8
1b84d23e5d2c6792ec9807525133b6a9
1b9e22abb8339989865a0b71a685e5de
1ba107d0933bd797ba22f22bda933276
1baa306768051af50daf6fa153ea0d36
1baeac84a51960453504538d95f659e5
1bb02162ec2465d51331a449f94d9bbe
1bb06d48117331cc25752965179ba881
1bbb8303a35c9817b97780a0171f1fe1
1bc2a9dfe8f71517ccc03a849b5672f2
1bc65bec6824d533bb34e84e8f03a8f7
1bd2135a5413de315eee374c5c1e6a69
1be88b9036600a438681655e0214b48e
1beb3c8c266745a871b0e0fd94ea8042
1beb488f6dc8ade47f9292c65ae597a1
1bf2b149e0fc87ea1cec5edf132b3c78
1bfcdebb79a18c0dda9315403f71037b
1c04afb478e6e5ce66d32bda99dd5b67
1c05b9aec99a3bb085124410ac295394
1c222ce89b936cdf8f96ec46b697073a
1c22bddf95514b354d37942db0a84a64
1c2b97071dbc0ec7714eaf6866e549e2
1c3453a795cad51bb004c220536bd777
1c34b7aaeed85aa95fbfa34196c0adde
1c3b31a1a7e5c314ae149a4d49266fcc
1c3d14ec0dba3d72b56721316f1cc777
1c44467e40594b556c745fefda9869cd
1c48f85025d9e5478048d495f5c2f2d8
1c5908d1ebcae4a5fe949ee0669d3281
1c5d5b816d23d70d7520039f2760ab1d
1c6045940733f88392fdd6a77bd349dc
1c60e32fdcc233c0bbfb95c77997501f
1c66e861c23469627534b431fad83094
1c6afc64b94f46f12def20194491cd77
1c718b58beae78e2877632ebc388c597
1c7a8aca8c5879d29842278d3de15491
1c87cbd8bfa10da5f00828e3dd41c960
1c89c48b82b15404e5fc67bcaf485003
1c91dc97b876bcea5156446bb6218416
1c929ff4365426a41bf0e4b732603c4c
1c938b1cfbbe188c60cdcbeb708a83fe
1c98f6e8e3cbddda8622b14aecad6d4f
1c9a900384a751573c75b7b1896e7dae
1c9bb338413f92098b2480fa5d2dfcb8
1c9f89700a3d272b02b971358ced7631
1ca19d3bae375bd7005154a75e14c41b
1ca3c88b6275da56193f880cc0ffa244
1ca67292963c011dfcbf51c8bafde3b7
1ca88e09bd210aa983322b8778246b90
1caad8b2050219aba6a9babed1d8cbaf
1cb22fc5b7adedd8478f80f9e28eacc4
1cb25f63c3611bf2da9d9de9d6fd4644
1cb63c4f99530dbafc1e02f4d4c7a3a5
1cb6b67e4719d086eea790301d5452ad
1cb7c3feb780670531559c4f35101b8a
1cc0a37ff4c986d7861e5828852f6be7
1cc71dbbf5e565f9ae8c1e44a2905800
1cc72fc6f3abe78171790b70aeed71df
1cd667c4485342e4c34ab861a9155baf
1cd77d5577848e93af7b05cf8b77a967
1ce1930967154479d651179ae0e08735
1cf18bf01a6e175a5ef6aa4bcdb5d2fe
1cf9e7f52c41cc77acde3536c21c1bef
1cfc6d12d560089aac9a26e627e9d69f
1d0314702a83f5722f6d216a4f3d4d96
1d04a0d18d289016f9bd94b9e726fc7f
1d0576b9feac807d26c709f2d9c31a39
1d0a3e9430a9ba68c7c42b29fc5991a7
1d0af85f61adff996d0bea647a08c12f
1d1be50366538795d1b322e3a54f6af9
1d259e7d610f6980cf4363ea8fca5151
1d2c7086bb2f17ffa0ffefd0f6648acb
1d2e236ddd967c2b07649cf1aa1ea827
1d3b48c388369fead1c9565bb6869cbb
1d3c055ca955d27ae5286b0587de88e5
1d43ecdf99d502b98a40dd270908afd2
1d48693d9b7f2fa56bc584e3cf5d5e63
1d55735502bc402c1a9e2de646450706
1d5be56cb74963bbf5fe4264f459d2d1
1d5cbe5db283b85eb6f5987af5b4c655
1d73c0db291834996aa43e9b76b7d4f7
1d74c3b1a48fb9122c0921b8a27df509
1d76888d6c7bbfabab52eb2e77e837a7
1d907a5b516bcd44bf5d300d574a8d75
1d95f5e18df80a175099540d81e3b43e
1d98e642678be9eefea730794bcb7f71
1d9aa4badefbe9a86510f71facb58e69
1dadb85220865e49007d28783f1af550
1dc5572e9cf7af0b6f853315117cc0b3
1dccf9705d475d45b32d0e0581057d2f
1de3843ed79ec6cade8f15771a42f882
1de410e071807921c701f672fd28a25e
1de5e9bf4db3fcb34b15ac61b16f2ed6
1de7c5e781bc8557daca07477b6cb136
1df0939adc81d5a63fdc18446c124203
1df6140a6ffb2ba7f8008f0f7528f9e0
1df7d3b0786da38cb480f2cd79b091ce
1dfc6de1a5758a00dd1ca0a8bf9b4e25
1dfe98304eeedbc8f42d1412144da763
1e16377afed65c33d118b096ce33e1d8
1e1a8b0fad62bae315064fbbb9feab23
1e2198e7c4707d7ced9e7fa800cbc8b9
1e248d8846f36e33159665ac29868988
1e26ec3bd8668bcf06c53553bd4ec869
1e28e458863e2952883ff1b2f08d5ea5
1e2ab9e6d22def61d8669db2bfb267f4
1e3bcc7ebb3721f353cd49bd45192b29
1e421931137e1bdd7b64fddadb0a459a
1e424c1d3b9aeb9e1ab234920cafb4af
1e52af55b47e0521352bdfc14c5d28a2
1e5531b5d7121a32ba83c6484f988d8e
1e55e1b9ad55156ed9c710d06c126fed
1e5ae5659eae75e3a7c18e6012132924
1e651a34e7f420e3cc4b35ce461900d0
1e695f3e119268a515f61558e3110d32
1e764d4180e0cd030238ba7d04e62f80
1e76d076a6227aa00bf359a5fa456a37
1e78febde4361780f16d1d85a46dccb7
1e7d3bb46088a9dd5b2e2ecd3c20212a
1e928db7e467fa558856bb267f61158e
1e9563796c229de1d1bd0e99521f1a50
1e965062b6cd7953f2b43aeb59a4efa3
1ea8ff681621e4caafbdbc437e521996
1ea91b356fbba8ea54ee24d0add2b7c7
1eb8777672fee8e7501c28a21a4b5ca0
1ed1b8803e44d01716c9a281b6b4dc29
1ee1ebdefad66a3a9d5d8958efc0d2e1
1ee564464f19b99262ef52a24aecc723
1efec1fdd72ba57fbf73101fb9e83162
1f0003e9f420a3bbab61c96f148e6c59
1f00ff56086cfb646fc6f61a294ba603
1f038f33ac95864dd29dc40a5a114125
1f03d60cd1936f8e45cc163676acf731
1f0ea569b2852d07e109d5bf0038fb7f
1f1999a6617275b043cb9cfb6684f73c
1f20692fce8c9d1d89bb4e2aaf3afe07
1f21033034d4c3ddb46e896dc300960a
1f235dddcbde9f61b18e00a9e53af4bc
1f2d866dc78204931ac12969c4506d90
1f33346197bc69964c68b6838662cbde
1f3359b5c3ba012ef84d5960b0284d80
1f35ccabd1603ac7c2afa2066a057d5e
1f3fb21dd689c122c3583a406b08f2e5
1f5b3680d3991336b4958f94605aa46c
1f66e44af3824bbe3a50644b9694dc2a
1f742cf86c8deff776f8f92a6f367f80
1f77f01f4f568e3e4ae9f1e27f5d7a2a
1f7abbf2400150323410b47bb32f3aa9
1f80703675c3040e1ce9a1c5b29986b1
1f818935305d9591f3205983e2d44b28
1f81fd44da567ee51ca329fa025e6ae3
1f8446185bd94b2dc7cb4e7c9de630b9
1f84aff97f57ccef034947022961a297
1f85555170831cbdf2f7db1720cc410e
1f8724bd88b350acfec41bb2a2a1dd16
1f8a5f21ec75a3ca291bd4495c4d6ad4
1f8b5e479d654a83fcbc9ce07687049b
1f8c7b9c73080330bb67c97e249a6ad3
1f90d41bb33b5f9e6ea5c79c931c1989
1f90f949add99568381d06afb4dfec1e
1f955af5942bb43e09eb2d80f686e748
1fa0f27560381136fbc03d4c32333a0c
1fa922303abbda739e8272092f8be6b2
1fad6d0393ade1d56fec7759c6674b70
1fb70800651aaadc827588dd3af3387e
1fbbd3419a57d9996a6d121d17b1bdba
1fc1c712fd70671628ab62a3ae98fa2e
1fc88d26686dba17f4a2d9056fd53b29
1fcb02ec901a650868a59dedb606f076
1fccb24587d37f6e21f657c3af4ff8ca
1fdcd609eab1405fa752d29903f00307
1fddced17977edf02600371ede5ad123
1fe3512f09c3fc45d3862e517f3fbac4
1fe608bd1c8eb0b126734b42ee9fe411
1ff16990fa67b7f182ae25f0651dc2de
1ffac0dc0d70c6c79a54a7cb89e69274
20081014d911a3b20f7c05f40004a365
20179be25e09e7611e4097bff015e6d9
20192e010dd7106e3db15484c4703fd3
201a955c5330bd9ecb85054d0b1738f6
201baf43b72b573d3ecd754d57835f99
202cd83b20efdda40ecf2ac1833a3e9e
2035d90c81fdce0ef18d6483ac83ac5c
203603700234c2706d0943a646f64c27
2039100d4f7217931986562bd322e38f
203c6ca81384cd6085a74af614fcd402
2047a0691304389b5c2618c586a3fb77
206125d9d370ba812f2b58bcbea7378b
20633498ca3160d6ed6b6b9b57a8c3bc
20653752377a69a83396137cbd85a96f
206ee342f4073f25e7e67fbff43cb12c
2074e030945c9a10694cb9ac9fef6377
207c82e5c809485d14a42d9469160942
20805ff5b90ae722b18efdf39785a7c2
20899acd0ce1c27a1bc9ccd409a5e9e1
209be9404e64f27126e14d451e3131ec
20a334e050e39a0cde775f865b1c9820
20a8cd19ddcdac0304b976262f99c521
20aa2353a76136ca37551976cc717ea0
20af204fcc7078977ca9b32a66266626
20af93eab8392240a5327536791c191a
20b656f0da0861d93fae59e223127191
20c4f1f6dad7c9ef518a474d79cb96a7
20d07d7c584b2e982768ea9e62a5fa19
20f58aa7a3240b67ea8b09226a5cdfde
20f96b163ba7ee5ca85cef0deaf875b3
2105836e0c48a37bbb70daec479fa2c2
210666db5462a1f23bbc6485d951ba0e
21150d3304207a7a24c0b41c79a41855
21216c6366fa2ae2ab9c867abce9ef81
2127e072b51ca97c3476cd2deda16c98
2132de4f66b678a650f530bbb4c5b4ce
2133b52b3e57e5b2dbb25945e3fcf9a3
21346151f013be725439bec1978a31d0
213595d2ed8c67d72277857a5f44b704
213632151bd10519b02e7f63422e9ef6
2139387a0a6156f73a5ed9fd1b92f8c6
213c87e1b637a3e88bc2f4b41664267f
214464dbc5f94f47cc8b0a955fe41884
214cf09417342d7f19cead04a883584f
2159224cbf8650bccaddf5db7f3aeb74
215dbd05ee80d39c0f2de0bc1cedbadf
21642981460fd29f69a9e4620df85b19
216e713f047b0ce342e6e68965f9778f
217deac3ece887ceac3427deb955bc75
21839c35f7c1597ba14343651144cd15
219aec70eefe4dbcd525f1884f626fa4
219b8cf424e84ee540510e53c92b9e26
21a1a66cf3e2df37ae6117eeb3ade9cf
21bb6ab5b81ae469b180d823ada7d948
21bbcae8909df4c73af12d3bf9b0250f
21ca67691e0def13ef28f0f8cbecb641
21cc050ffc11c0ab8a8889d11aacea4d
21d6a55eee8dbe8d84127ef26f572c34
21da53e3ed1b722a57e0337008e49a3f
21db48a06b8b7bee40b793c119e6b014
21de92da85518991bdd4b099e4c5ffb3
21e550c604dc298597bcfdab12ce3d48
21ef412eca9f988212af8b5c99025233
21f30da54c91f0d820382a37c0a2e715
2201ffd63f55323db9d3b6b805d87d1a
220652809dd927d07da07971a357dc21
22111b4871d32492f7dbeb51c56336b7
2216d5322efb599f840e7900768148cc
221cbd4aa326d843d8794f1e316ee439
221d49ddca239fbd439f436fe23d0e00
222b5ceb1717123dbf1df2b67035718a
222e28d590bb6c37c541a643e206d220
2237501aaaba929ba89014e0f4a82b5e
2238120cf7ca30000924de8b11187684
2245bca0de6f8cecb74d540f32d1dfa0
22460101dab2d5af17737352bff7527c
224988508576e8d1a158895a70cfbfd4
225159429f5d6c7459020c1a51bdb6f2
225b2d61e3a6e509217f05482554f0aa
225beef6d29fecf1c603d1d03ce7e732
225c2ecdbc19f893d116bb3c8cac9ff7
2266062590a8716c4431a9b3281d28a8
2266b1ac9e10e859da43028606239875
227eb7c590ee78a373decd58defc7b04
228a0712fee2b9c4334252355496932d
228d59d07cf9774601f13ec2f59dc95a
229210e48fb8b0e0ae827f676a4e68ec
229f3e40852732d4d448861ae743a47d
22a02f877b302869d6974662e17d495d
22a203a991f5fba3a4112573641f718e
22a317931e36f6a7e808ee83e1886ea4
22aa38cec6e4c58a9f229e69bf4bc95a
22ab6788a570286129a76e6e0254af45
22abbdf3f43252b4fb5fd0effcdf535a
22ac8a9237776a83f39aa39ae5757173
22acdf8147259c3b4630b14055b07ef3
22adb06223741c4c799d5fa011b7f1c1
22b5ed66786f2d56b559d91ee7406235
22b7f423e8408cf7890babfb67e84a1f
22c62431e05b782c691daad4b911ce9f
22c6a6b52b2402af0ffd8a304492c14d
22d2ce4f5370c1fe5c17e588f71a355c
22e0d4f762539500bb81c43dd31356a0
22e1f46a95dca5304f3587469a7b6e52
22ec1cb5cfc4ee10ce6e5805d043728b
22ec51989705d2c83b8538c2e043ad5f
22edf82d80366226ea5a4522532615e7
22f0596a82fa2c6df2fad110a01bd72f
22f6ee78914a8c6e8a2fafd510ffaf0d
22fcb89ee0a4d0d219a9b620778d51c9
22fd5f9220e325b9c718ac167e008e2d
22fe38252a51d767b05393b3de623faa
22fe786870092fa38ea595b0ea2a9d0d
2306576cac60267797ce241b20486ee0
230fd022d9069df749beebe550211317
2312035e6596892a91fe6fdc2afd0e0b
23122cc059c5bda1261ff16dae8801c3
2317117c61c1748f9b1bc2de3c8cf12c
2317f5c0b1b7fad18eb425e98db102a3
231bfd4d063f05e8157e330d8e6f9343
23237d365f2bc48cff4d7c991e378bc0
23254662f4df21c0dbc767e64e7e65c9
232f09d095c9d328630105f08446fa7d
2330da77c2cd1c64ccffdaae2f52e399
2337421c96b591168d80b429c2fbf5d4
233ded796e7a491842fc33333434e207
234442da958c64c0dfd5feeec7d857cc
2351364e9ef069291937f58e1364878f
2357a447d44d1db61a88ef0ef08883ae
2362ea221c92a0824edbcc902c4f469e
23631cd409a32d8f469d7586de966562
23743cf302164dc5bef03f3143e95057
23787949c39c399ac9350543f5ede15b
23a1e51598b25c7ce062db7e02260776
23a5209925a83c7311e0d8a188933bc6
23a554947bcfa659c0f27f080c127720
23a8d75aa179e692c323c21aa0ab9980
23b3b9d2f534e666185956d3553936f7
23b9e5ff7e51e6c0eb6018b525d873f3
23b9e668d04b9a3667e93a1407d7d075
23ba07073c71a1c84bd005f15e5d23d5
23cd4eaa9b3ea885ed89b2c488775354
23d814fb879db3973884a440a3aef02a
23d8f9334a3c064f7a0eb8322b3d6d41
23da8256aaf77b47689ac9208f3be50f
23dc96c59809423db75b7c72dea3f499
23ded33ef7a3a1b1bfc84ff837ce7ba7
23e45f972771ec84f206bbda2f7bcaa8
23e721ecfc25079447bd9c7a636cad75
23eba22d45ccf37375918c0a6bb3ebda
23ff8444a0022dd98a45988207f2ab1e
24043a0ad17d28704faf5ff3ac5887f8
2404a3cdce1342188e72b478df0b26ec
24090b849cb212e652be4ff58996a6d7
240d5bf091816a69d6c3123c560081b4
24234b2c5c5ccf45a850ff11b7f231d0
242440eba0b5136564fd697b5615bc8d
2433e7d4a9cb667979b65a28a5c2d198
24351ecb95c82352b2479c8ab320abfe
243b98ffa342098c13e2a59bb73aed3f
2449166e27b883e3188f656bb7308412
244bbea2ca6aed0ce0acaa94039e5954
2455e964b16b7fe9d68cff4a24e918cc
246a2d7e71f315dc056f580679efe530
247818b7e0f417974196647598a6e1ff
2479204563a1092ae2395ce51f8b546f
247e30c47cb33efeacfedb8e4e3754ef
24840cbca1ab427e1ce10042af17f97c
24882
248ba7d8c27d8da042e5ef505b5ffbc7
248d8be94fb5a143746d748be72d613e
2498cb0cc28f710cc7f7a3f82e1b0860
24a16c76f301a05de301424c122a19b3
24afdd72ecc63904f3330a6c86fe4696
24b0de180fb18c1040e1c7895f97fb39
24b5f944cfaa6de1f0102211390b3135
24b70dd0ecf6da2c5465ff4a24eefe94
24bb732ee0cee13d217444b01c8dd5f7
24bde3d949d18bc1ed3851ed84efd10e
24bf72169fabd3ab4b9afd5259852731
24d784c3012a6b5a78fe93a7ee583a8a
24e50ccba0bdceab1b885cb26ae636c1
24eadd44e4dd67503c4f1b926b6ae9b3
24eaffb623a3d0a615a96e8096dcd6be
24eb7cd7a4a99debeec832f426200bcc
24f01d9665760fd32291ff6068466caf
24f14411091665d0253ed5ce1bb3d2c1
24fe1eb9292f1d8873f15db80af8d2c6
25069
25079
25097
25107
2511fbb8b10f2cc89e7e842cd3995a96
25153
25163
25169325eca50ce3740c301dbe99ef12
2517f672afa77e0b5fc7169318f55cb1
25181
2519a86bc42acca6020db165126a25ae
25209
25219
2521c3c6a11244718a8bb60a72c14aac
25237
25247
25275
252926ffa02dea24c6eb017f18f8534a
25293
25303
25321
25331
2533a5dc92dc5fe5e7822c49f9597f42
25349
25359
2536adf6ffae1a462ec511fc2d26d8c6
25377
25387
25387e1819d905912b93f417bf2dbb15
2539a895440d973acb8f6b0cff603f7b
25405
25415
25433
25443
2544d8f6e22fe32b8f8ba61f7d2f0896
25461
25489
25493ada496b587e7ae68f735073beed
25499
254c94a205db3dda0d02c2da5804d998
254e2c31bbd4b0484fe6a3d0570805ac
25501b79a639463beaa457755ab20e3f
25517
25527
2553f3f77b305d34f703a6584f89bd59
25545
25555
2555bb6667dcd82283bc85e440a164c2
25573
2557e5a42db241b16c9416e44609aae1
25583
255bec4913c24d0505f43f25198f23b3
25601
2560ae5705b0777b68fe60e4265d7bda
25611
25629
25639
25657
25667
25685
25695
256a75960e00a5d206a15709c2e1ebae
256f119da95731849e17118a50a6e2ff
25713
2573c8d71a6ec5bd82eee8d2c899cf92
25741
2574f548ea9f7b229c62e3ebe7b1a595
25751
25779
2577a6db5ae18851b19eb0b8191cfbb1
25797
257c334998859c23f8b61cb37aa2a10d
25807
25825
25835
25853
25863
25881
25891
25909
25919
25937
25947
25965
259722a2819317b79628a7a20dc7d954
25975
25993
25abc58ae5452d9ab629dfe2b6973ca4
25c36f8f6ecf18f16d480641a0d31dc1
25c3ca4ee6aa5c186cf8350ee9855ec6
25cbb54251b128035af98609e2122c52
25d130f7df416146bfc4c670592addb7
25dfc75c183975514225ba7f35f2e874
25e0ef8ac109e903a443093f3e31bf1d
25e624cb284b1dc278f4572c07915694
25e7ce61883961aac554c7a31b23ffe9
25f2595f376399d74bbde378e06a4720
25f57b56df41fe38e6e672a6a600c662
25feaba873459b71001f35b6638dcf58
26003
26021
26031
26049
26050899059c17aede8af7698525f966
2605384765bf38d38638eba92f295de6
26059
2605f509acbeb05c27cce4dae040f7d7
26077
26087
26105
26115
261198491749151155410d85f4ec73c2
261292e438293c22210cb1e5bb6ecb81
26161
26171
2618692480ba33f73eee386a9dd90852
26189
26199
261b18a967dee4bf8ec50d94eb126bba
26217
26227
26245
26255
26273
26283
26292
26296ccdad08a5e5a9403cdd1ab80e16
262b2150e5eba8d7f2a5e78c924f77e1
26301
26311
26357
26367
26385
26395
263a5923ac18d18d51c6dd0b19613afb
26413
26423
26441
26451
26469
26479
26497
264f1b67e1b190354b7bec006c065fb4
26507
26525
26535
26553
26563
26578cab7bd7215333116e4c02c1eefa
26581
26591
265eb0c6087814fb5051a57dafa7330b
26609
26619
26637
26647
26665
26675
26693
2669572bbaa3af72e35bf0263574d251
2669f0f000b08f3603680c1221f40d97
266bbb42f731b4fba985dc56c0df9e90
266e10afd467204770353a26a4924bf3
26703
26721
2672a4c0cd91f7f01b5dc038f0eb44f6
26731
26749
26759
26777
26787
267d7684dc93aaa46419867c56624102
267f0d00dae81f2f345889a2a078df6f
26805
26815
26833
26843
268464c68ba58560b4f8a49ef3500378
26861
26871
2687684f93a6c91c5b7caef985f05e31
26889
26894522f76a30b25d50e8afc3cf36fe
26899
26917
26927
2693aec844429259bb730979ba451360
26945
26955
26973
26983
269aebc0f48e520aecabade1d439baf3
269f4e2f49fb0016628d4aa2fa92a941
26a665c2d24a3078e2089f1593676b02
26a66db51b614f6c1992dffefbdc660f
26a9a0bd68874d453b50c9b8a82f3337
26b14e5da2dc9e44a1387dbf2e8a0ed9
26b8e1d54bfcb66ba66af8bd81653843
26c879348cc912aae1eb24d03a6fa403
26cb84e4a92fc393c794e1bb7bf01a83
26d5eff14b7f83a8c97477db301cff9b
26d74d3cda2b2b02e9f6e4c7f804bf6a
26deea9f9880bf2407fd8d271a5f0e19
26e14b5c5583bfa2229fd81ec87e4219
26f3518b3545a56b7517d8f103e62aa5
26f466af6b003e50114e4695f8d90831
27011
27017a727054f66b77f3b174a05511eb
27029
27033cc2e9e6315aabf70b5d634ac58d
27039
2703d81fc8569fddef4543c94d2b1044
27040ed381f9c4d6b997b06cf878ad58
27057
27067
27085
27095
27123
27141
27151
27169
27170d24e415c8e06b4b723604fc820f
27179
2718c924c85f2006d20c6619977ced2a
27197
271af1d7e2acb1635633674f34c83c8c
27207
27225
27235
2723a334e25e5b294d5f99ac31ed4d7e
27253
27263
27279db6e79bfa6ca8967debf6de36f3
27281
27291
273075de04d2d6d91d2f90271dba822d
27309
27312497db9d145f46a440f6cb1af623
27319
27337
27347
27365
27375
2737bcbf78401aada8d63657c674b3aa
27393
273b79463c3bb0d26891ad6137752a74
27403
27421
27431
27449
27449faecc1181997f4e91a23bfe9652
27459
27475c39a301d8185defc7507fecc256
27477
27487
274a34710a9531e0cd89d7bd3359cacd
27505
27515
27533
27543
27561
27571
27589
27599
27613886724c246c8382623368d6d0cd
27617
27627
27645
27655
27673
27683
276bd74e62212f9483b512b168d1d48f
27701
27711
27729
27734a90c96f7ce2c5ed6e24268b0fb1
27757
27767
27785
27795
277a71c4ebbaa390ab8d8d3dafd43c19
27813
27823
2782359eb513853188183a9d31df1000
27841
27851
27869
27879
27897
27907
2790ddc6e018ccd38bc5b612461df81c
27925
27935
27953
27963
27976d5014e444ccdced169b5fee87de
27981
2798f5d33e3312f66c3aac748f883413
27991
2799f39ca9e162b89a2e74a558b34fe2
279b5373ed9b8523d20025fdadc9591f
279e099aeac5f4f07e31638f612bc457
27a32355390e9204a49eec7e42b11c40
27a4b0e027b03765ed6ed158da437dcd
27a8e779a1fa6191af35abca730f1626
27b1de5c5caf4c820e035c51ef508f25
27b3e95ff2002d57b9d48fe8b915675b
27bbb956964ba248eb9401b225dfe5bb
27bda052571222a449015881d93bc6b4
27c57d3326799924a7ff043cf3e7c7bb
27cdc09094c8dd0e95309432d31c608e
27d8989f20fe7222d4e742c69bd10853
27d8e69292003723f8f4b5b8902ea14d
27dc2225a70c1f634008212522db4104
27dd6d61f5d813cb7a18c9b43e7dd253
27e33c70ec025c3e6269df62cff11c34
27e8ddc895cfd4a40e7d4845b0ce9dda
27ef2b4477ee26502bd9c547224b6f3e
27fac4457d69734757437f81034d9ae2
27fe4ff02f859041a33aefcb2e11b01e
28005
28007
28008fbe2936746b5c176e72b8284a01
28013
28015
28021
28023
28029
28031
28037
28039
28045
28047
28053
28055
28061
28063
28069
28071
28077
28079
28085
28087
28093
28095
28101
28103
28109
28111
28117
28119
28125
28127
28133
28135
28141
28143
28149
28151
28157
28159
2815db1894422880c3d2d93065540054
28165
28167
28173
28175
28181
28183
28195dd706055902c8ba02916d17c88f
28197
28199
281e40b589a8c4a85ce342f1d4c9184a
28205
28207
28208ee150b2566f462c32fab98f2f63
28213
28215
28221
28223
28229
28231
28237
28239
28245
28247
28253
28255
28261
28263
28269
28271
28277
28279
28285
28287
28293
282e3dad293c44991df3ec1c2b651c13
28301
28303
28309
28311
28316047b
28317
28319
28325
28327
28333
28335
28341
28343
28349
28351
28357
28365
28367
28373
28375
28381
28383
28389
28391
28397
28399
28405
28407
28415
28421
2842277ef4b5af1bf670905fe0d219b1
28423
28429
28431
28437
28439
28445
28447
28453
28455
28461
28463
28469
28471
28477
28479
28485
28487
28493
28495
284cd3585b3ebb45fb1d350847a3b13f
284f7da8f558a80f1e409f8e8420dd56
28501
28503
28509
28511
28517
28519
28525
28527
28533
28535
28536f77c20437dc0a512d92ac8a2b82
28541
28543
28549
28551
28557
28559
28565
28567
28573
28575
2857dd8b3d6cb538cbcb915a572b7f87
28581
28583
28589
28591
28597
28599
28605
28607
28613
28615
28621
28623
28629
286296fa574d58c7be8ba827f5eb4e69
28631
28637
28639
28645
28647
28653
28655
28661
28663
28669
28671
28677
28679
28685
28685174b8cd0731630c5a29c5bd4edb
28687
28693
28695
286fea9be8826a0de2109ec5cfaa8bce
28701
28703
28709
28711
28717
28719
28725
28727
28733
28735
28741
28743
28751
28757
28759
28765
28767
28773
28775
28781
28783
28789
28791
28797
28799
287f845a86b1e718f98fa9c6eedbe946
287fab15c01b975fff6f935e45ad27f4
28805
28807
28821
28823
28829
28831
28837
28839
28845
28847
28853
28855
28861
28863
28869
28871
28877
28879
28885
28887
28893
28895
288a46f0ef4dfdd2e03fa9de00a73cec
288cc501a68e60303c9f7948215c55a3
288e9252470904f766eabc980ad3821a
28901
28903
28909
28911
28917
28919
28925
28927
28933
28935
28941
28943
28949
28951
28957
28959
28965
28967
2896a9c644f8d907b6e86fb491b03da8
28973
28975
28976f8e25dc0b40cb253fc835548990
28981
28983
28989
28991
28997
28999
28a1dcb6cbd505ec1b5ae47d70d381b3
28ae0f072cc4c94b2f8eca488406a5a5
28c035c97ebe4e0f04a22db761b3a371
28c1de9b47baf73e8890fbc014d2b4ec
28cf59583a1e46a50d530207e9706368
28d2ff8fc2c997b0ca3c0116a4615cd8
28df571153fc60de4ee0d74b3560d1cc
28e67f440e2c98f70332f0de842eedca
28eb5d592f8dbe384f09d7a3384969da
28f189517d36d09b60076460e124a2af
28f8547d0972d115e494857d44f0ff7a
28f99fef0a8038c74988951746254d53
28fc805f586388bd3ca51bad15021a3d
29005
29007
29013
29015
29021
29023
29029
29031
29037
29039
29045
29047
29053
29055
29061
29063
29069
29071
29077
29079
29085
29087
29093
29095
29101
29103
29111
29117
29119
29125
29133
29135
29141
29143
29149
29151
29157
29159
29165
29166964a41ef4348ea40d016522c4f4
29167
29173
29175
29181
29183
29189
29191
29197
29199
2919af2fec95fb1800daa679a7adaed5
291a27743dfd97332c7a9a830f4fc838
291e74acf1bac28717b91ed23d47aa6d
29205
29207
29213
29215
29221
29223
29229
29231
29237
29239
29245
29247
29253
29255
29261
29263
29269
29271
29277
29279
29285
29287
29293
29295
2929512c590b6b379f9d6beb66fdfa1f
29301
29303
29309
2930d768e1eb3c874170c534abf9f904
29311
29317
29319
29325
29327
29333
29335
293375346c899de2f8e2903f84404f8f
29341
29343
29349
29351
29357
29359
29365
29367
29373
29375
29375912279ccf0993e28d2b0700baac
29381
29383
29389
29391
29397
29399
293b7b00913c8f22a370c7d0b56722cf
29405
29407
29413
29415
29421
29423
29429
29431
29437
29439
29445
29447
29453
29455
29461
29463
29469
29471
29477
29479
29485
29487
29495
29501
29503
29509
29511
29517
29519
29525
29527
29533
29535
29541
29543
29549
29557
29559
29565
29567
29573
29575
29581
29583
29589
29591
29597
29599
29601541f10d2ccd1dbc8799199f55b1
29605
29607
29613
29615
29621
29623
29629
29631
29631a71e466c5c2d180982b9c4f3d70
29637
29645
29647
29653
29655
29661
29663
2966325c3416bbd19416b3c8d4d9a14d
29669
29671
29677
29679
29685
29687
29693
2969494e5d4e0e8e2c335494fd92d3a9
29695
296ecbdcd0ee557ac03a35c26df2dbaa
29701
29703
29709
29717
29725
29727
29733
29735
29741
297412a64444742cd3c4e188f629ef4b
29743
29749
29751
29757
29759
29765
29767
29773
29775
29781
29783
29789
29791
29797
29799
297bd2136755b2273623c8ef5471604f
297cae94b435b7860a939253e4660769
29805
29807
29813
29815
29821
29823
29829
29831
29837
29839
29845
29847
29853
29855
2985b47068b3b97335f7e7300cbf3f07
29861
29863
29869
29871
29877
29879
2987cb99df2df48c2995c67aad513c72
29885
29887
29893
29895
29901
29903
29909
29911
29917
29919
29925
29927
29933
29935
29941
29943
29949
29951
29957
29959
29965
29967
29973
29975
29981
29983
29989
29991
29997
29999
2999c7c2ad0462dd6b2c6100c6758a86
299f1571bacc1f8ee1191587ee6beef0
29acf418ddbe15229fa2cdcea3b13668
29b01bc8fa93dc0222112697a22fb638
29b07186473b1f9ab05754a90ebc2e93
29b298b72b4c500de17ac6e05f0ab311
29b40dc58234a1d01fe5b4a2dfc3c65f
29b5939127b6bbca1dad969c5be2f380
29b703f0f0586dcea63975506b18ccb3
29b78a73a8880de675c4404ddb0e22fa
29b857797736916b5498d6b32f172034
29bb1498eecd208bf0a628269440362d
29d5e2576df074dc5b047c1ae88b427e
29e06e55bac9b0285d20ed2ec8a80fb9
29e9a9f81046137619b62fc3bb873d50
29f1955975ce3945e293f10005787b78
2a05814d2221e546edeceed4ef3e367c
2a08ab2eb606ff7f48c48d0c78c18516
2a0a42de4e0679d0da5fe0a3f769d34c
2a107a47400ae6f1bcb31d9a6eae1078
2a15bfdb22be38cfd67b49bbd71f7754
2a2699e6448b9eba143d554e28c12fb6
2a2ce9130a061afa397815dd416260d1
2a35cdaeda5e0ee5b87f7ec75e60fe3e
2a3fb6ceb6009afa64ff52eea40b09b1
2a40fc7d3e925929f96c2ae6cdb2b09f
2a496334f586ee007dd21c0bc99e73c9
2a499db05746028945b39b87ed30d9f4
2a569b49b81df712b2c90f01641b5cb8
2a56c1b3743238af81a8c5147327d239
2a57a9b418349c2e3052e84203a0eba0
2a5cca4f2e1110ce3ce1bbfddc2e09ce
2a70f082130b5ae4f28543bee94a7794
2a72f090eba157ef97d6b0445aa5fa44
2a7f21a1ac82ea92c0957efd3006af24
2a8482753ba333b0b3a4fd9bb6b4959b
2a8a5f294c3623c7a73597e641ec5bde
2a9681f709137b53a6268ccae581bc2c
2ab196fe1f732931d1ab0fc1c8dd3321
2ab6f91ab4d17df94dc1fed520eb150e
2ab75b7f71642ab8dc156bb81e826414
2ab8b350d972319d009bf0b7f1deb4c3
2abeba520d45acda11ad3f1578a41510
2ac4a5c4173fd672ca35de1e9136f856
2ac711af4b359707db2d0fbe47b3fa35
2ac95da199f6fab22e732560044ad20f
2ad2c2a0a42668eccc87a5a0a9a0629b
2ad378a31c6faff53ce24d32f0e3ac6a
2ad709955348926628659819634d7ce1
2ada122ee193c8b3e2d3ae9f47f449cd
2ae4825cf4338f6b30251fb4ddade7d0
2ae82a8f21d93b13a8452966fb526ea0
2ae931eefd2facb3d46cc62c3e65258d
2ae94c1978e3e033a6e6ecb92bc7418f
2af6e818741be00d4aad468aa8fb5c9b
2afa200f22371ee9bf2bbbf5deae7736
2afc104670f2ab6bb4caf85fa2be8414
2b0a44fe9345bbfb1af7e2de5fa4e555
2b0d230de0f570178318b7766cfa6ceb
2b0fcf2203d2664b6b0bb1d1dc9e8df6
2b3d14fb71d001a0daa120c1b692aaf8
2b3eaa0d01a5c3f40c8f57f49cb141c3
2b4787c1e1e02d11d760538e363e5f97
2b52b773dbfec06fe81b8b726b7ec09e
2b558da200049a2bf09523f05b79e21b
2b59cf544e1a040d7cfb6f8cec69f2ca
2b6142554b18d4d1624aaa968298fc68
2b657c72b75a7ab2e3baba499c16d4c0
2b68f27cf2142dd96dd81d797fdc5a7b
2b6c1c97b366725ec2624c43a8dee039
2b6db3e7a7587557adde6732dc9e977c
2b7673a409ab459d5fdd487186afcaf1
2b87f5919eceaf594f641c9b296afe79
2b8bd1c5e37c09517450caef4e11b999
2b97d19aeb8966063c1df657b7b15a85
2b98833ca84aeb41f11fbf1ee3cd4bc7
2ba5f9492becced01819105bbf060b70
2ba7bcff323068f907addc3818fa9e2d
2ba7ebd025b3738106fd513224609d13
2ba98383533135ba5196e011cd98a7ab
2bab8b2d1bc43411c7314d9bc80309c0
2bb9d159c45a82113d913bfa1448d7e9
2bbd8638f7bd68bf1a59aca1361f9616
2bc10fda9adacdfff7a8356b0633825d
2bc819ed96d6fe50990065c502c0e810
2bc9d139f02ec41c587085648d8e84fd
2bdf22e864f60918b46a2282afa12fc1
2be3bfe1511152529c1bc3d5996be3ce
2bf0c897bab9ab2b1a63eb7e7f69c517
2bf266968cadfcc5a77cd6da62f4a396
2bf726a87dbcec27b921851601db9586
2bf76cc36e97e3566a726177a8b5327a
2bffabcf104c8e11cf7a18e0559d9ec4
2c0371c627fee785e2b4a34b9d9eb3cc
2c07301dd30ff2acbf90658965bac6ae
2c17de390d070590674c4ef797fc0b2f
2c25e00f5a893aab4c6c29eac5f80baa
2c2a655e6b675fc9d6307c48362ec1f1
2c2e70f173da56dceb08f4734c299400
2c2ebec9382f286c9ebc865e60983b3c
2c33c1ef5f1b605242625617c7b5de8d
2c3872d59963b2279ad3cba4fb41547a
2c389f93d274bb679c2472641355b878
2c3b80ed7dea0f3af4c3c54e3cb6978d
2c40f680b44100181f7c8f4616ec6345
2c4383df8a5d0b018d1326736b645d2c
2c440784e42f589481607ae19b0a2cb4
2c4453bbd48818cd3089f2c778650e8b
2c49c724c055886fb6e1c780f57e8712
2c58f18a75422762e14c73e854a6be6c
2c6c250276c933f6dd9e203d2d26137b
2c6fe56ae557fb642da8984426ed8d57
2c71e5b7963a5ae20c4fa768f0cfded5
2c7424210a0f750102b4dcf0873309c1
2c86f17488921de853315f4a52780d3b
2c91237cfc43df73d45b363dd6a504c8
2c91f95dca85ab5762e6708e7e0cde2f
2c93df694b7a73b5a9202498cd75d2ef
2c94f4d6084dc5be1d770f925d4ff0ad
2c9747a9106f261f542b921cd8027062
2cabedb0121bb5380760bde4b53ec9bc
2cae405ba0d5e478b8e9b9767b1705c8
2cd6592184b526c932de44aa6a9d376a
2cda6ca976c81630cc1501fba17dfdf8
2ced0e7cd916d1c372f0d723cdd2a6b7
2ceef09011b6818e3ddbd8a904842e8d
2cf1e18654ce2d767c86eb47292507bf
2cf208d0571770b5e572cd1fad482969
2cfa03a413bbe843ed080bc5ddbf1bd8
2d0075a0fe5c6893a648673b2df9d747
2d0226fa156cfec15ad4703443209dc8
2d08abd74dd17f62402527d626f75aa2
2d0abdb5796c3462d753fa92b2afc0b8
2d2cbc62ce5c1b8596320a4893e93483
2d3787b81e8a74c197092a04a3aedbdb
2d3b72a4c3211e748785cdbd6c5b6600
2d3c4cb53209a75254e01540f0325e23
2d3e64606132ba0a035831a9db084ac4
2d45faf05124254c3f901bbf1a0929fd
2d466b7c0a0e9a77366eb675cec0c4ea
2d5a402059b3e24fc3a51a00b77d7bfd
2d5e2b91572a5337eafd48c320e08be6
2d6a3b5b2e9dd6874d24acc385f57908
2d6b1b2e348d069ceffdf64d51d4fe51
2d7acaf1737f2200c65c131e63678c7f
2d7b6bcbf446a23fad63672c580d5135
2d7d6cc45bd968f3bdb7c7948aa82d58
2d807b8bfd170162d2ef23b916b11fdb
2d84ae01626c6ac94b9c2c31dd9ca3fe
2d8627daeb2a4cfaed8f36a0ac308368
2d9a60eaf64f842f591c67c7f6db48a9
2d9dd65494516dee9a880c7e4a79b46c
2da20d110c4e11af69853a00189d9135
2da484e54c76f3710c982567571270ae
2db00507ef2a1319246d728213a5a779
2dc101669e6eea9c0925341f45ad57ba
2dc1f27abaf380d0e2502f585fd1210c
2dc6a6351cd2413c2c61bd1a5d036426
2dcb1c7d7e1e79f00aac52e865c283e3
2dcc01ff8d815724739ed78319b0c026
2dd92b4f77190b273dd0b4fe9468a427
2dddfc01eaf8591dbb40b14926b44eda
2de23189a135ffea139fa976f8ba3123
2de847005941744e65cb3f61b5613fe0
2dec6fa02474d19ffe4b6892daa297d3
2ded291803ac5a8048d279f426778bcd
2df381c719eea4aec4637a23400a6b2f
2df5f15455e3a8026cb04fd01f469fd5
2e00ce466b597ffb5869a1256afe813c
2e04723f28cac38fe1393d287440442a
2e126408d51869917580fe746a0a9ea3
2e1439d3810abebaac6b83cddef94672
2e1b512fef9a851992919fafc28a470f
2e1d0b97548fd8d97476f69dcb8a8208
2e330ac4c8762aa3399826fb876c500b
2e369c0e001bee35dc535daea7d81a66
2e402a41f4fb4480cd534aa00e4f71a2
2e42cf66788f8ef081ae2ceac5762396
2e4387a92409f885d635e4381b8116ff
2e77116ee92658bcd684a03613b71f9f
2e8825ca0ff2e4f498f6c8c0b70bde61
2e8b948f761ca45542ae21dd731faa30
2e95825550e7cfaef9356004b45d1b4f
2e9bc316dec5b0c2489ba90cf56c3ccb
2e9c7a08ec538224e11d6af5287973a5
2e9cf49a19bc7374ec5acf78bd5e8fcb
2eade0017162555677c6c9564a84329d
2eae321ac08a0e128ae628404bd19d18
2eb7270ae50b2322146e16fc345c3830
2ec0c144e46b15f028c8c942d4292ae1
2ec2a2bcd4239847d96fa68cfcbb6170
2ed21a3bdd05d8f407f656ed752db1b0
2ed46a7bb7cda214a455c82139855680
2ed5de78cf71008491abf3658bcc06c2
2ee76ff7e2c6a7ca95b65623fd4c5285
2eeb60c611ee69998c01e5de58f39b5b
2ef2466534c791eea4ac57853cbe38ee
2ef8afbbad906eb2e710eab5a44d7038
2efe2b85f5e6b4c6f82c3f7bc3609808
2f0526c2cc679bcc9ec5abf8dcf8766b
2f0775273247aeef079c274fbb8752dc
2f0d22108875fc760914be05bde1a1be
2f0e44a6ca177dc0211c42effde3ee01
2f106f9c501e57e9cf7feb245927eca1
2f1f18d898cfb7c4b0bb8f3152c3f902
2f26c55be3863550ec68d3cf6838d4c3
2f422944a7c01c3bf84d0fc2aa1cef5d
2f489e0a0b2c9b1ca992b1dd2fdbe8d0
2f4f22216100c1f64a0dacb5eb605083
2f5f719efd0e6c8c23c898b3ddb4b853
2f68ef360bee32af2028699bb58c190f
2f6c3b5ca32400d91357a862483e9007
2f6d24b3f5b8f643841ab15d1b18bf69
2f70bc53fce260b3fe766ca7382ae4ac
2f7c7f409296e6b59df716eb57efef3f
2f82be60e3802f7e477cfa521fd2ef12
2f86ef690ad52279ba8c6ac559b3e3cd
2f8e0aa499122692a2983b35864381bd
2f8e6c949d6262fc21136d17fba83a2f
2f8edb522ffdd9cff8648e0af141a796
2f8ede24c3bd102569d73962f9290516
2f97e2ffb22e440536bce0c01a6a9baa
2fb0378e3f86762cd8c01562e3a7cec6
2fb80417d3174231a9bdae6e16eb98ec
2fbe9f670934adcf43959cf3e847a6e9
2fc3a6a694368e022b94b8e50c2d1618
2fc4a9190608fa27c262d13da765e16c
2fc7ab94ea4b3bfc309000e71f65efde
2fc7b813a7aff2f555cbe91226e6d683
2fd11a45ba931ac94a87d61cf6c4f572
2fdfe32c89034e8c66d00f01422bf1e7
2fe677bea887a41e52ca7f721e135df4
30005
30007
30013
30015
30021
30023
30029
30031
30037
30039
30045
30047
30053
30055
30061
30063
300657721361b99c2598c83a6ed22b18
30069
30071
30077
30079
30085
30087
30093
30095
30101
30103
30109
30109367758d5e173c303f6337692186
3010fa94804e474e4ea4451df61848fb
30111
30117
30119
30125
30127
30133
30135
30141
30143
30149
30149ac6865b35e0f4cfe7e8c122448e
30151
30157
30159
301633a123387e89f383aa7a59ce7108
30165
30167
30171eaeebdd64978d03918c9bd8b930
30173
30175
30181
30181026cf097b1e44968e4169d2d5b4
30183
30185cebcfec7c2827af63887e8fec04
30189
30197
30199
301c1693810a04ce41cb37adc7f5f789
301d49d460899a26f9561ded7498f08f
30205
30207
30213
30215
30221
30223
30229
30231
30237
30239
30243fc4dc0ee20848c22874e4e4da85
30245
30247
30253
30255
3025cec34f04a0d83ce9584818136249
30261
30263
30269
30271
30277
30279
30285
30287
30293
30295
302a6285c47a42944d8ed59a793512d7
30301
30303
30309
30311
30317
30319
30325
30327
30333
30335
30341
30343
30349
30351
30357
30359
30365
30367
30373
30375
30381
30383
30389
30391
30397
30399
303a4486bc28d68d061db123fce7d0c8
30405
30407
30413
30415
30421
30423
304255517c75e92afd5cf9625b0e1b2e
30429
30431
30437
30439
30445
30447
30453
30455
3045c3fd1efc0006b3280a130464c24d
30461
30463
30469
30471
30477
30479
30485
30487
30493
30495
304f13fdcca4148e226d8e4ecac03478
304f838bd56bfd680dbd0f2eca4fde55
30501
30503
30509
30511
30517
30519
30525
30527
30533
30535
30541
30543
30549
30551
30557
30559
30565
30567
30573
30575
30581
30583
30589
30591
30597
30599
30605
30607
30613
30615
30621
30623
30629
30631
30637
30639
30645
30647
30653
30655
30657fcfb0d0070e620274cd05fbf957
30661
30663
30669
30671
30677
30679
3067ce912b8dd61b53835a9549683662
30685
30687
30693
30695
306b84763bf1c1aaac977491a4f4a763
306d471d0948fb50303f7921bff38a6e
30701
30703
30709
30711
30717
30719
30725
30727
30733
30735
30741
30743
30749
30751
30757
30759
30765
30767
30773
30775
30781
30783
30789
30791
30797
30799
30805
30807
3080d37ade843b33df7b013f655660ce
30813
30813a8b59398325accf4d3414ed6ce6
30815
30821
30823
30829
30831
30837
30839
30845
30847
30853
30855
308598709725a69c0aedb16f1dd1085e
30861
30863
30869
30871
30877
30879
30885
30887
30893
30895
308bf75f70639bb1df6b07532b2a9eb4
30901
30903
30909
30911
30917
30919
30925
30927
30933
30935
30941
30943
30949
30951
30957
30959
3095df2b5f01db5e18c8e244a1c4b7bf
30965
30967
30973
30975
30981
30983
30989
30991
30997
30999
309ec5d8226d93b69b180bad0c413499
30a66f100d73583117ca3029c550ce66
30acad5eac1b85328e8c298ca7f71de4
30c9bc758654ffb67a902283e5f23f23
30d15031b41b62d1826ced5d4c6c7d76
30d3201f02f8c2024d7103869e357b41
30d5db618b81e10c8e11b196a8ff8a28
30dc7804f2cc647848f8776e7fc0cc31
30e8bfe59275fdfab31b06343f8704f9
30ea1c85b243db93ee064c605be71273
30eb6c9b68cabb115ec5e85677447a42
31005
31007
3100c63ad224c787915f8caed00d6782
31015
31021
31023
31029
31031
31032718203c8613ac842e27815c1bcf
31037
31039
31045
31047
31053
31055
31061
31063
31069
31071
31077
31079
31085
31087
31093
31095
31101
31103
31109
31111
31117
31119
31125
31127
31135
31141
31143
31149
31151
31157
31159
31165
31167
31173
31175
31181
31183
31189
31191
31197
31199
31205
31207
31213
31215
31221
31223
31231
31237
31239
31245
31247
31255
31261
31269
31277
31279
3127ce6aa6d17eb17dfcb20eec526ed9
31285
31287
31287c6a97d3ae53b1d0a7265b22fa69
31293
31295
31301
31303
31309
31311
31317
31319
31325
31327
31333
31335
31341
31343
31349
31351
31357
31359
31365
31367
31373
31375
31381
31389
31397
31399
31405
31407
31413
31415
31421
31423
31429
31431
31437
31445
31447
31453
31455
31461
31463
31469
31471
31477
31479
31484256873dd0486aed1d40cf4fc60d
31485
31487
31493
31501
31503
31509
31511
31517
31519
3152163d4a215c120db90ae9010442d3
31525
31527
31533
31535
31541
31543
31549
31551
31557
31559
31565
31567
31573
31575
31581
31583
31584e63887804bcd582ff52f1910f65
31589
31591
31597
31599
31605
31607
31613
3161303e7c880f392d8dd91497803c93
31615
31621
31623
31629
31631
31637
31639
31645
31647
31653
31655
31661
31663
31669
31671
31677
31679
31685
31687
316871a756da27cf67de5c0264660a9e
31695
316b3d217d8251ef8b448d92e00e08cd
31701
31703
31709
31711
31717
31719
31725
31727
317304f2b7c819be9d6211a267d5932d
31733
31735
31741
31743
31749
31751
31757
31759
31765
31767
31773
31775
31781
31783
31789
31791
31797
31799
317ab6ee7c4525ec44013a70945bebd1
31805
31807
31813
31815
31821
31823
31829
31831
31837
31839
31845
31847
31853
31855
3185fdc2008fd0e5c52bcb317cbd4aa4
31861
31863
31869
31871
31877
31879
31885
31887
31893
31895
318b9bdb4d418f911dab281ee681a208
318d1ae3db318f459e8a826a2e39b9e6
318f71da38cb4c9dd9dfdc82cb4101fe
31901
31903
31909
31911
31917
3191734f0316eb6dc328eb252570358c
31919
31925
31927
31933
31935
31941
31943
31949
3194a86c02dad138e22009a2bcc928b2
31951
31957
31959
31965
31967
31973
31975
31981
31983
31989
31991
31997
31999
319d51c569b73aeff4834ff8238e18c5
31a3f1398d5bd1eba417e0d4235dddc2
31a85851f2abcb41f4b0d5a90c197282
31aa7cf7775a3dbe485af7d48add420c
31ae163c707efbb9371e2e4ce0f4ab76
31af68fc695cfce339f1762634e07d87
31afb486596fcd8033c9ae41240ee7fa
31b3a391a789afa9339047860c18ed76
31b62ff70496abab3d0f98a6e825ddf0
31bc92b5f97e3f5c4b037b1988f5244c
31c40eccf94441baf1c4d8127b161a5d
31c67f7684e80929b6024a7b9c32ac74
31d375008e1dc8e2e82a39877f78e1e2
31d80b13518b42e8586da292a6a68fae
31deded2b41af9ea10f482914fb2bcb1
31e0bb941edbfa3eeb8eb8f1b04e19ea
31ea129d1d4e4991251761a5639ee6ab
31f10445b76ae1fe03f04cd564eff309
31f7925fde1084ca033a638ac371c034
31fc775c22a72d40e181e6b96a46dee9
31fdc862f7f243d9a3b95bb19a0e9f53
32005
32007
32013
32015
32021
32023
32029
32031
32037
32039
32045
32047
32053
32055
32061
32063
32069
32071
32077
32079
32085
32087
32093
32095
32101
32103
32109
32111
32117
32119
3211be332dffb7b761de51621d875af2
32125
32127
32133
32135
32141
32143
32149
32151
32157
32159
32165
32167
32173
32175
32181
32183
3218662ad2706208d6e20bf74486c1e2
32189
321907805a883a3b616c4cf537727b49
32191
32197
32199
32205
32207
322114f021f9b5538820ef8263765d7c
32213
32215
32221
32223
32229
32231
32237
32239
32245
32247
32253
32255
32261
32263
32269
32271
32277
32279
32285
32287
32293
32295
322fa08e982c15042e24b72ea3586b26
32301
32303
32309
32311
32317
32319
32325
32327
32333
32335
32341
32343
32349
32351
32357
32359
32365
32367
32373
32375
32381
32383
32383abbdceefc625f8b3699276590ef
32389
32391
32397
32399
3239ea47b5fdcd4ca6c867bc8e2db8b7
323b534dbbd6dbfb08c77e8670806f26
323c11a81b1a235c4131ed37f35e80cc
32405
32407
32413
32415
32421
32423
32429
32431
32437
32439
32445
32447
32453
32455
32461
32463
32469
32471
32477
32479
32485
32487
32493
32495
324d3a437e23461057eb1396164d7c2b
32501
32503
32509
32511
32517
32519
32525
32527
32533
32535
32541
32543
32549
32551
32557
32559
32565
32567
32573
32575
32581
32583
32589
32591
32597
32599
325a7d1167b540c4afb1afa2ad6e26b4
325db1514a6aa7010651b41919895d89
325de4ea89b8ecb109dd20fdb085affb
32605
32607
32613
32615
32623
32629
32631
32637
32639
32645
32647
32653
32655
32661
32663
32669
32671
32677
32679
32685
32687
32693
32695
32701
32703
32709
32711
32717
32719
32720a8503da9e04046d65f6028454e4
32725
32727
32733
32735
32737
32741
32743
32749
32751
32757
32759
3276237c8fd75f2700d66795d117ab97
32765
32767
32773
32775
32781
32783
32789
32791
32797
32799
327a83ae963c3215464fb86acc73b651
327bcf4d91f2f9cdbd2714a062bac427
327c5d7270280e2d8865b9dc865c0aea
32805
32807
32813
32815
32821
32823
32829
32831
32837
32839
32845
32847
32853
32855
32856159cb7448d07b17e7513a41f62c
32861
32863
32869
32871
32877
32879
32885
32887
32893
32895
32901
32903
32909
32911
32917
32919
32925
32927
32933
32935
32939b5c67882cd158db15218aebb763
32941
32943
32949
32951
32957
32959
32965
32967
32973
32975
32981
3298143e56f808f3384a4d4d6e680b82
32983
32989
32991
32997
32999
32a342dd17a0d55f27822eb90ed33dad
32ae9610c5c300bbc9d787c7470fbeff
32b7e138a06a5d448455b197bb3fd6eb
32cff0a92a866c311da5bc6c9489f418
32daec791012333d1a0ed1a0cf6d3220
32e8337b3d10a8d8110f9d47a942face
32f1ef2f81fde94eaff3777b7943dcd0
32fac1a94bbc96f0067e4bfb0b60234f
32fe12b67534c912e22e7e31dd493dcd
33005
33007
33013
33015
33021
33023
33029
33031
33037
33039
33045
33047
33053
33055
33061
33063
33069
33071
3307160306248d6f3fc7d4c6d4fe1bf9
33077
33079
33085
33087
33093
3309462e0e2bbebfc1ca3b1c7cdf75ba
33095
330c4d94d69745e8304b09805d794589
33101
33103
33109
33111
33117
33119
33125
33127
33133
33135
33141
33143
33149
33151
33157
33159
3315c3256e0d6dd028b6c401a72c5033
33165
33167
33173
33175
33181
33183
33189
33191
33197
33199
33205
33207
33213
33215
33221
33223
33229
33231
33237
33239
33245
33247
33253
33255
33261
33263
33269
33271
33277
33285
33287
33293
33295
332b66acbcccaa97bcc962a7358779a2
332cdc195b09872f5daf41d95dce4fb7
33301
33303
33309
33311
33319
33325
33327
33333
33335
33341
33343
33349
33351
33357
33359
33365
33367
33373
33375
33381
33383
33389
33391
33397
33399
333f14bf7d24688bb76d869766efb403
33405
33407
33413
33415
33421
33429
33431
33437
33439
3343e1ea68fe74dfeb3a3443d99140cf
33445
33447
3344fa0deebb4372fdd1b03f84ab2f49
33453
33461
33463
33469
33471
33477
33479
33485
33487
33493
33495
33501
33503
33509
33511
33517
33519
33525
33533
33535
33541
33543
33549
3354fd696b2293aa1303e781bfc9a066
33551
33557
33559
33565
33567
33573
33575
33581
33583
33589
33591
33597
33599
33605
33607
33613
33615
33621
33623
33629
33631
33637
33639
33645
33647
33653
33655
33661
33663
33669
33671
33677
33679
33685
33687
33695
336ea7aba636b9796a8cb2fc9550d83d
33701
33703
33709
33711
33717
33719
33725
33727
33733
33735
33741
33743
33749
33751
33757
33759
33765
33767
33773
33781
33785
33789
33791
33797
33799
33805
33807
33813
33815
33821
33823
33831
33837
33839
33845
33847
33853
33855
33861
33863
33869
33871
33877
33879
3387d5aa0b29d06b69d784576149d4ab
33885
33887
33893
33895
338b1ecb534f205394bc4a715d32f6a4
33901
33903
33911
33917
33919
33925
33927
33933
33935
33941
33943
33949
33951
33957
33959
33965
33967
33973
33975
33981
33983
33989
33991
33997
33999
339b8d52aee9a7cd07fc32a75c86fbcf
339d2f99ceefa6dece644e10950cebd0
33a8e187acde9c4be34f8ea7cb4712f6
33ab4e6501ba33715471cfd612bfb4fe
33ac6c975d274d60e2efbc4b8f05a649
33b5f129c09ad3079dc02665babfac75
33bf6487b707511509baf5c428587887
33c267f3c5b3f28ae10f793675e481f8
33c31f25198fb28adf7e6552906555a4
33cc4f9f3aa79cf2a30acf7d3bb9b13e
33cd1e0156dc4d12ca4f121c388cf798
33cd9210167384396c70d1dc3b04d9c9
33d156c113883bdf939706df1f64f98e
33d499e3b71f5eb6264d15dd774cd9f4
33d7fc09006acffff476201266a85377
33db29a7e9dcffb5e25894f47c002e50
33db85ef233cda26e0319dd78941c83e
33ddc693d6d9807faa85b605b4410256
33df2b39c8272484adc3e9f6a6519e4a
33e04e5f97503b676522ccc3014a6192
33e548d9e5f18352a3e84c225b6ed205
33f2398d055d525f7a276e40a88b40d6
33f99946d7f98f8d3097947e49805101
33fde48557198bfa8c827f8680b9401e
33fdf87c02391e548b5600e3abe520b1
33fe712fbca77bc9ea4f0bfde9d7a7c1
34005
34007
34013
34015
34021
34023
34029
34031
34037
34039
34045
34047
3404b027a43c81709514f7a3400dbdf9
34053
34055
34061
34063
34069
34071
34077
34079
34085
34087
34093
34095
34101
34103
34109
34117
34119
34125
34126
34133
34135
34141
34143
34149
34151
34157
34159
34165
34167
34173
34175
34181
34181d9648a4641315a72971e2f6f315
34183
34189
34197
34199
34205
34207
34213
34215
34221
34223
34229
34231
34237
34245
34253
34255
34261
34263
34269
34271
34277
34279
34285
34287
34293
34295
342ce7f5c220a695a91710cffea84a37
34301
34303
34305
34311
34317
34319
34325
34327
34333
34335
34341
34343
34351
34357
34359
34365
34367
34373
34375
34381
34383
34389
34391
34397
34399
34405
34407
34413
34415
34421
34423
34429
34431
34437
34439
34440921f1a2260f6b16393ed652cd0d
34445
34453
34455
34461
34463
34471
34479
34486330e800ad5ed9eb344a542aa751
34487
34493
34495
344caa0308ed018a9217f0d28bdb5132
34501
34503
34509
34511
34517
34519
34525
34527
34533
34535
34541
34543
34545603eab91f33508df83a1a411225
34549
34551
34557
34559
34565
34567
3456f4dd59dda87a29f7641b02365440
34573
34575
34581
34583
34589
34591
34597
34599
345b62ab431c303ca1fd724f2b3a7f05
345c52abf90f1872cbbdd46fe7c5ea4d
34605
34607
34613
34615
34621
34623
34628ce3f37c9bd726bdc6c1702ec179
34629
34631
34637
34639
34645
34647
34653
34655
34661
34663
34669
34671
34677
34679
34685
34687
34693
34695
346a931e26714c942fb6c6c3ff7913c5
34701
34703
34709
34709fa369a0a128fbd3fae22e148c89
34711
34717
34719
34725
34727
34733
34735
34741
34743
34749
34751
34759
3476359a59a2afa2f40babcff4bfcfbb
34765
34767
34773
34775
34781
34783
34789
34791
34797
34799
347e2d4240993a687aede9c875518a80
34805
34807
34813
34815
34821
34823
348244180faf74b6eee990184012cecd
34831
34837
34845
34847
34853
34855
34861
34863
34869
34871
34877
34879
34885
34887
34893
34895
34901
34903
34909
3490b454fa7f97bf1228e78843050c1d
34911
34917
34919
34925
34927
34933
34935
34940896e4884e5b909877184bbb4025
34941
34943
34949
34951
34957
34959
34965
34967
34973
34975
34981
34983
34989
34991
34997
34999
34adf2b65e35b2187741a65c22c5dac2
34b6a7853e1634fbcb3b0b08595de15d
34b86734a1106cdc8cb5f28d6cfb6933
34bb148bbdbd528aa699793258aea52e
34cf1a48ae7baf2693798e6b98ad7673
34d042f0cfd4a3db5311a6795c85df24
34d105ff405ccf086a0952910a4d9d2d
34dc0f637015e10c70182d568c1c60f4
34ee5c220dae3be46fa2143d71607139
34f5b2c5a5f6e4d272781e8104906b52
34fa57b4ffcea8a3d10bb3d54f543267
34fa62ec5c7d6a8e8fddbc1169d4079d
34fd8142b1671d4b829b3141aab74bcc
35005
35007
35013
35015
35021
35023
35029
35031
35037
35039
3503ae82f8855a4dd0d8949612fdbf11
35045
35047
35053
35055
35061
35063
35069
35071
35077
35079
3507d7a4a87aa00bf71f0d6548991ada
35085
35087
35093
35095
350c367274cd983c97f3328258f29e53
350e40b830063095758444a238ac49bf
350ea2ceddeebb2317e003b23d4f0c4e
35101
35103
35109
35111
35117
35119
35125
35127
35133
35135
35141
35143
35149
3514c9020b05560478e863dccdbbedc3
35151
35157
35159
35165
35167
35173
35175
3517ae01071859c11237f51c76ab95ff
3517e26dd8d7b9db357ae80b701f147c
35181
35183
35189
35191
35195b962c2fb92f4b35529f9e0196c0
35197
35199
3519e6f71ba2a79d06bc627c2ececed4
351c4130d4b551a0960baab03034b68f
35205
35207
35213
35215
35221
35223
35229
35237
35239
35245
35247
35253
35255
3525884353a7b4921c1178ab77bf5801
35261
35263
35269
3526eda4d02cf4fbbec69e8aa0ef9a1e
35271
35277
35279
35285
35287
3528e055b2770e7bfe6227ee10f28c46
35293
35295
3529587981d7539d0765305a40672830
3529c3baf5f35d29bfd621277653e7b0
35301
35303
35309
35311
35317
35319
35325
35327
35333
35335
35341
35343
35349
3534cd194b2da091a36bcf8293bee981
35351
35357
35359
35365
35367
35373
35375
35381
35383
35389
35391
35397
35399
353aefcc333e60263feea228ebaa3990
35405
35407
35413
35415
35421
35423
35429
35431
35437
35439
35445
35447
35453
35455
3545c6de3baa8be280db303dcab55c6c
35461
35463
35469
35471
35477
35478d6e6398c5fa5741e95c6d679034
35479
3548448eff65f386486ebb0062f2d077
35485
35487
35493
35495
354968cfc344e5bf99da20475d94a637
354dbd2528123fa4b0950cad9bd8991a
35501
35503
35509
35509170a716db2d97f0743478094a74
35511
35517
35519
35525
35527
35533
35535
35541
35549
35551
35557
35559
35565
35567
35573
35575
35581
35582d742fd147b298271b805738d8d6
35583
35589
35591
35597
35599
355a1b29679047f7a53ef7fe81b8967d
355ca91ebee813ffcf290a9e6b836ca4
355cdea7210de72e7d83d52ee0aa37df
35605
35607
3560776997756fd9dc3e4b80c7e2e545
35613
35615
35621
35623
35629
35631
35637
35639
35645
35647
35653
35655
35661
35663
35669
35671
35677
35679
35685
35687
35693
35695
35701
35703
35709
35711
35717
35719
35725
35727
35733
35735
35741
35743
35749
35751
35757
35759
35765
35767
35773
35775
35781
35783
35789
35791
35797
35799
357f3fa8bca0d94f38efb03bce922ad9
35805
35807
3580d3d0ca06e1ea9a71af846ccfd93d
35813
35815
35821
35823
35829
35831
35837
35837c4cdf90f87188d7067121478fac
35839
35845
35847
3584b44779f22535b2edf7f70bfe76ed
35853
35855
35861
35863
35869
35871
358716e0cffb326e72235830072094a5
35877
35879
35885
35887
3588d5fd71f9e997fcb2e7601917a74b
35893
35895
358b855a733a0fbd2b2af3e0f9dd16cd
358cf62c128b57b2fe02b45d5da5bc27
358d3969527fdc5b14a1dd783fdc33cd
35901
35903
35909
35911
35917
35919
359218f9ff520c48f8bbb4640c5d0db5
35925
35927
35933
35935
35941
35943
35949
35951
35957
35959
35965
35967
35973
35975
35981
35983
35989
35991
35997
35999
35a39b757575e2039ab49751666d543e
35a6c654d0b3695e002c608c2636f810
35a9e9493953fb39f33ffb4522988a08
35abf955e81caacec0c84d97ee3c9462
35b8883f44410a5e94fd8c989ee92c85
35ba3e206b61b37364039bfff605380c
35bb2ab3afbb042fd5683720d90addd3
35c2545aa9186ca8817831224ecf1ebe
35c9362da112a2f197c2534aab4bc52d
35ce363a40fc629300dbe207677e66da
35d8861992e69dca5db0865a8e98b2fe
35de5e728c7a73b8dde11dbc719a6521
35e44ea3bee41afcb914696b1ec4d7a3
35e5e29ea2237b78247d267bd387cb5a
35f3662c23ee507a1ff9e34ea805ad5b
35f803111ec7de2d335faaa1ad90f33b
35ffcd008ba039fbd063baa8132cbb87
3608d6b4b9b5493e49c2739b24f73682
36103fc6fcd894507a2e9d3bed2d6f3b
3610b6857773925f107024a667946cf7
361711cf11e43ffb8ef8295cf224ec28
361aea5ec32bb7a30a9e57154ca72eb8
361e175fff3ba4cd6a90ac912e513c73
361ea9c2ede86c6866e33df0f6bc31d5
3621da489ea411946526bed7cb0424c4
3625f1ef72716f135429c74e2ea91720
362f8760ff17f48580b7549be6ab7f3f
363046910fe6fbbc91a6ecc71b6195b7
36310b6c4168fec7e40f21b830d7fb59
363433d7488387a069c230266fd7ad4b
363e69e275e4d6f2be7162d3a686412f
363f5f380d150d85f962324f3beb7f7f
363f880c76b1c5306332d14209e1e8c5
3648c0abbc22d0e66082eaa63e013c66
364a48fd04077ce2fcba08e2eb1529e0
364ee6539f215535bebfd6cb54977892
3660d0f0eb694bd948a00dbf6dfb89c6
3667c5d5a981301348ba524e7e0ba6cd
367401e39ac485e9a03bee7b91cc54f5
367781c2bcc3c709f836eca5afaa00cc
367891214d3d939ab37bc025f7d6a205
367f1ad8f71f0dd7a818d99768f8938a
36837b10e644701c995a9513d9fb3411
36865f141d305a5cc98963b5863f5002
368cee56508654ad7667fc42ef6216a6
369b7ab5d2dd54a90279a1accc8ec1c5
36adbe526d29c51ba1b4ad19be2eb7af
36adf2e766fa0a6d9635f8e04d6eaf64
36b272ac36a03bb014565a0f782f90a4
36b78bf6f9ab66f00a47240b6b73a8a9
36bf28a2a504150027e74b5a4f28a299
36d17c32a1c133a04faa1df3e2ea8483
36d8eb8c57293c9a7d0e83e5481193cb
36db1e41f3d8f2b98a52d29884ba1629
36e4daed3b4a05dd7798ee21e07544a9
36e56bc56eacf418800eb76be065105a
36eea3bc3a39f454b35051628318c056
3703315178ff08801e4065b535e6c304
37078d4468508608985e1ff98f38d55f
3707fa2e985fed217cf04ea123eaf3f8
370c619c95083d7a2481034f27c8f854
370f61f50ee79c687a3e7cd915d591d6
37162aeec1cc9c9e39c45586a0b74df6
371f1bf2a93dbecd1b70ac211dd67464
37283eb07a71e15fc1ee74ba5da377b5
37342b84341757ae161dbe2715fdb899
37373aa05b0db3e436eff4d5ea032408
3738470b1d55baff409de5477f2bea1a
373f36ad95206dd1498478056a814f46
37585863ed45e0fb462fc02651c74df9
3758781bf1bb3ee48c036a2727268691
3767a88fabde1dbe6ba5af97554ab88f
376a747abe6dd63e61e2d0e6ac27c7f1
376aa7daa9676a4fe1423b4137fa12dc
376ac5db62218cae04a7d5309ef2525f
376ce66f0019dbd4a2162f27b9156ab8
376d432d14ec19121409d0f699e7e5e4
376fe3492b6ccec77a10b587a6deae50
378e5d9bac4bb3dfccb5d16fe1ce5651
378f6c9f66d6f18877059ddd7dacd1f2
3797b15fef31a5e76a0d219469b2e7d6
379f0daf66b89614764cbea6751d58c7
37a6f445df37744d1c1c99bc2362514d
37b5d8d43da3018a3b6fa77bc4318ed3
37be84a35c416411176f57e298995cca
37c449518f15d04c9ff7ff4a4b14b720
37c80bb00a5521521b526d2bc3c0cc5f
37cab3e02a3974ca6ecd2fcf63ca2d6a
37d3af64ba5804fca51b10a0f7cb4f99
37e2d1c52897d5b553ef1b4af3d1ca0e
37e613e78a29973561c4024f44c47c9c
37fe2ab9d4ac28e426ec92d995741d3e
3806b76ebaf9309fd1e0754b2270e6fe
380d59a80dc99cab7728c8ffaeae056f
381061584984e1571218dcc48c8a0d6f
3815e9cc489997fd6c0c296a8e642ca3
381c7c709c49c3c8b3c5b40ff729332f
381e308fdd68d9c857ad64d6c5b3bf79
3821890690ecad8edb084e14e8481319
3824ba72c64a70096b6448db9ad76afb
3831aa2b7eaf8fc8917aca95e07d5642
3848529cf76ce65dc94b916c8f290025
3859193fdd5756b4584042ee2caf9204
385e754eeca5b1d51ff4351bfd6f15e1
385ec25cbe044d8483e5a89a998bd060
3866a75e7cd8c9998f1ae0fb2779d2db
38697857f08a54d4fb915b739fb6a6a3
38781cb01dfc18482212c6f367d6a21c
3879a20501816acee85a2eb2844100ef
388c1caf17e36e926be23009565fe78a
388f28cdb2af247bb29188f52866f63e
389574d41aba295f252c920166c5f8db
3895e374e36e90fa86024b4dc0fa2a1e
389a27162f4d61b19289de001f915937
38a1d40808e50ca171e7245a5fbb6074
38a22275f4c237257b05342f9eca0165
38a95f2aa26845d6cfa5c649ee3320b0
38ba1eecd7504f093e19f79647a412fd
38bfb4933d29752a263cad3f87d68f53
38d1ec9d7fbf4413999558a0e90c545e
38dfe3819750c35a0abdbff852a5b223
38e8c1fe0e24a0c9dad6dd0d1b8aceec
38eb27bd9d927b48d91897598dd4fc88
38f4b18787980d004373d7db48b5fe69
38feb809fafe58bc2f42017db92fa859
391ef1caaa29191344340d2734b896b2
392bcf2662baa4a261df1fb76b3e4518
3934a4b1e494fe2c8c3d845e863cdfc2
39405f9a1cf510e3a7b0edc27f331348
39515b9d7927a48483e9d43281d4a4ee
39593157a6ef922618afe02f33621bfc
395e6bd5b6c1149e8424313e7c6a6a45
396e50e14843ca609b89b30afa264f14
397809c20c48fbc5786be63812eac3c6
397b9cbde74676422aeffe83d215c1cb
398d180ea56be535e1e2d5c93f9a5cc1
398db797f8e8f46c53bc434e98c8f965
399721fbfb8bc629eb6f2973ccba8a4f
399fe4d11e0c70eca02cd38492cdafae
39a3a11396510a02175e70d4e89f262e
39a878736dc9967acf1f0ce16b0fe11c
39ac4a3cc99c924b6de7bf95307607d9
39b42ed1bb678cd12151dfb8f49b7595
39c4b24cb7c413dc0150e32b1ae72952
39d9ea68ed0ae505dc092197250f2bf3
39e1c11759273598e2fdc441403a6aac
39e67d282561bff30b42a1797fab7e53
39e6f3864c2c145a5bd3c52564ff70c5
39e93e097570801fd13fbe5b3fec1a18
39f91bb1f62414a4e996d0e74e157445
39fd268a002b42436f28be35764147f2
3a099299e47cf19873de3ca1cfb1dce8
3a0f36fb3554131bc1e27aee14d65eba
3a10d0f7293fbd8b3552773da59bb073
3a177ee1076cd641f93603f2743c91a7
3a263b12ec586b0d0b62571fabd1053b
3a2893b9fa8dfe4b4ba6c0773dcf31f5
3a30edaddc14122a8230e7d1a0483ac3
3a3b11c24bb782d04493d96d7513310c
3a47e7f35895cc3fee648a81a220d5fd
3a4d25def394a53e6764b691fe117f7a
3a5b6a8a6a76d8c304b10e4e9a4e9b89
3a5c83da43032d77dff18906400e1ede
3a5d4e809b282658179b37ff5048af0a
3a5e71b87810cf4b2d256834a174d44e
3a6327eb79514db5ac1f46952df5e5b0
3a6b30c1fc24fc0a59503322b2df54cf
3a6edf5511bc29da5f54332ebd186a85
3a7243f39f85d18b79468f75789ad329
3a738f7dc163c510e3ce50c026732d76
3a76a042e8b70bcb608d56a82b047ef4
3a8edc55a8004da3d6f32d42429cafc5
3a8ff38af6938b7445105b5d994ef7f3
3a9442f46be17fe2a5d52ff3e3097e03
3a98bc1ec4958a56f15b7d310b8b94fb
3a9c777ff5423ef7c47139642676628a
3aa795aaaf72f4e44521c4d585c2ac63
3aa7e4432c4887b603d48b5eeb316dc4
3ac1b741c591468f840e15bc93ddece0
3ac22d5f38bb4cb6a4f1101625948eaa
3ac8e89ac5ac39e2846c32ffd6ba80b5
3acf23c27818358c2110957a966e6263
3ad06443b25018a3e2cc5a1bf8b81e5c
3ad965937faf2c4826b7c4bd8bc66327
3ae407cea26cd6f3a583aeae981859d2
3ae86e470cdefd44100a88400f1bd875
3ae8e995f192c3392d8a7a4a6d3f6fc3
3aed39e34df83063f25f494e487f07f5
3af3823590fec5b4bf88786c56fb3ba6
3af70e7720c84e4551280c8567fa0fc2
3aff71c015eccb250946e71182b69535
3b0c7fa61c43e1a663cd791904775b4a
3b0f2df87dbf1a88cf8a617bc1d3cc50
3b1f0f52a6ae58bd65140930e8f4785f
3b3ca6a2bef3ca2bc29936b1bb528e8c
3b3e70e840ac98af2d809c4efd05e9ea
3b423a2fe8a52fee833cfc9a71a2f7e0
3b46afddf20f5a1e5edc01d42bb1449b
3b471cb3e0d5800543d6e29a017c9dda
3b505b55271ae4ef9aed552eb003de7f
3b52a3bd7040f36dc043facac0f00b25
3b58755372758d6f152ef9bb47493756
3b61a2a527b17653803142d9415016c6
3b64e16536f5576b6d35331e39996972
3b665b68c227e60cc412024f99076370
3b69e446ffab7b4093664360cc8d6fa9
3b73446584d1602e2586de8cc6943b7f
3b7b3eee740351b0995db70968958553
3b7b40f20ed1e0374e78513ea273d2d4
3b7c882ff16e44ff88ae5eae48463c24
3b7e390823122065c5a4c625be294e2e
3b9a2a6c98e7b68c63fe99d56a591725
3b9fda8d5cfa68ba5fe13a410a289135
3ba9a20b02563ed240e1855497ddfe2a
3bab3f49a2cd2168d9b942ba4db1dcea
3bade988872c711e52e22c1ec8eeca39
3baf225171c4a49e56fa4c0e4a46999c
3bb307d3fa84d920d398c6b54f893ab0
3bb481cad116af7f29555560fbe93f6e
3bbcea7edd907a4128fb03191d7572da
3bc402b6e05a007e2a21e821a736c77e
3bcb1acc9e94a4134c39471513d5888b
3bcdb47cc250076d42f4e2ac0add6e48
3bd08c23454a07980f67193454a72d82
3bd874ce162e81cd3f4110c299f3ec10
3bdfc8d7ef65c768824bb0fac8d27049
3be5d522ada16cb68519934ea8120a23
3c02ca6fe00b09e5d15b3510ceef0d4e
3c08da7dccf59d4ad23f157a64340ecc
3c096cd51e8fe9d7c69607f6d121e467
3c0abc86a70312b8c20cde5c296fd7e8
3c0b988b2e0256fe18428441fbc40206
3c136d41a8f2f47c062627ba67d3f569
3c1565fd173cb48ef2ada5f53837cf60
3c17f9df83898c82f74f49319a5f5ff8
3c23166d36c1f355c8641b54aeec9eed
3c2fe5f7b0ec4d9004c60a047197d8da
3c37c23e17b0b100dbf19cba6a709ea1
3c4fa368d81d68df1cab01281ac48c34
3c5431678777a7aca65a68fc7faf62ec
3c57e748ec3175b4c5135dadaf981fd9
3c6a760464c545c1568bf6ac016548ab
3c760dea337247471b0615795ddefc33
3c7a947d69abbe69cc8718093ca72e39
3c7bd489a3e03fc62860d7d2021b10c3
3c809b7417e1ed863bdef7ad0639ad05
3c8dd3db76eb0bcc0ca5bc41caae4835
3c9d9f17e15364ecf0695c99e19e01d1
3c9f1fb2921909ec87245710a1f19dec
3ca273871689128736139040cc3a1a40
3ca58ffc0c477d1e9e4062e02b3b5465
3caa0af073ca507d2d06dd7eb5f0919a
3caada878727179b3fcee702adc63599
3cadeaa144daa6ebcf5d65ebca781df2
3cb0b67979dcbcf0afb84e6e9bea3d35
3cb0bcafe752de6d72b8a40039e8ca62
3cb95fd880566751714e8075d8f24aeb
3ccd03447bb6893a9b30060359774b13
3ccf544c7e575fb8f261584e0e005d52
3cd5ff642075c4ed422751dfe7d72d30
3cda4831860185c20f161479ed9c798c
3cdc77f4d35bd0f573dcb1aa89929b64
3ce401bc6035493d3c0e82f70c2a8311
3ce98a719c328e2911b07dfd3485828a
3ceb26e5c1b9158815332072cb2b2f0a
3cfb484961efea7a4753061d6a7d3946
3d035ad1fc72d90e541864bd0d2303cb
3d04158bb964d2745d2d7404e6156cea
3d07bb0f77e3f5b2472c2a172e22b3e9
3d08ad48826cd3f550fff0476c52587e
3d19519375f9de9251cbff3674cadf26
3d1d83596b4366b48f945388b8b8621f
3d204b2f323af05564b2e3cf65a126de
3d246e7be5e2da4279f3afa5d10a0614
3d254ea18c1f22e86905de8b46de7f1d
3d3cd0996e6db51f441176aadf0381f5
3d42c4d062fe4cdc615cf5a000e5d5e0
3d4a1704b393c19a2e3ececd8c0fb88e
3d5ef25c484ee08e03558baf7a1a39c3
3d61f40337e3b22bfd1a6ba70ca910c0
3d62648a079b8af89f67b74166cec990
3d631d55b379fe5bfe596ab05bd937d3
3d6b6654fbfd3bb07d9bb85e585a0ce0
3d704203034fa460fb4a2cd4ac0e5f6c
3d7282ba92f10f465f0a076f024d000e
3d7467d64a240477c61b6aef1b7b0db4
3d7ab3cb836166fda508423169803745
3d7cdeef3cf673a8ce4a46f22a645ab7
3d7edecde337b85bde4368aacdbe4f3c
3d84e0f47a49bf5df012a1eea19f1d2e
3d98a0da2c58cc64df1e70aa6aadea2d
3da5d85d31987e34b8ce2c0c1c6bbd1d
3da9cf8399a79a247c2c0295e88075c3
3db0352fccb0d9d2a6b8b255f818b9dc
3db2fc3c898cd7192a0b54328d917a73
3db39e64cef68ffb18f11e0428782a2c
3db591ec54658d9edac0b2ef2e872f3e
3dba37f45af2193a62bd0202efb1c6f2
3dc06d8b9d115551b45a8893001b9676
3dc131d71a15f235a058aa0de9f7e364
3dc136d21aaee3c097011e6a1923e356
3dc77d2906fd6e979eb02300ba22cdad
3dce56a02c29d07b2cec701fb37bd608
3dd13016bcd252f7c4e445f634bf8870
3dd21f7a9b172b92ad2eedc1189060e2
3dd5e1c09c0469e868892db3ca5d673b
3dd9bb292d556500fba0528247d325c2
3dda49d9004bdfe21461bda32faea363
3de86230672daebca4c0d7952986f18f
3de8c520664a4fdabb4b5da66114cf99
3df8110b74987e2aa077a15c19caf3a9
3e0d0b8f70cbecb58ed98cda2c7b0a9b
3e126446c9a1912d6ce3bce292d5748a
3e13a2352845616aac3d2cef37389cc0
3e2102f7ea9ecb324f71d1c2b10844f9
3e26e2833745255f717c1f02111c623b
3e2fd38c3832c225e9550b22bbd33b9c
3e333080e786fbc835dc429176fefe70
3e3f026c81fd818d070573321b9a6a89
3e3f1313728222f6ea6e6851432b7051
3e421df7c82b90bee0ac4e76e03249ca
3e433a18cd08cd17d260d0edb547045a
3e4388f3d89c909eeefbbb8199d185c0
3e47185f39ed7cc7f37e116258d57cd7
3e5381a1466421192594a7b45e0db9f9
3e5e008384238ead123a2673dcd99db6
3e5e236aad0e26f5cb27a6a652121f12
3e65ce5af9a8e06ef835587ab3942008
3e6b193df8fdcd4dc101cd0f250dc9a8
3e6d6492a725f183521b7f064dee0168
3e730fe6e7f2aa1cd35e7c0a3de1812d
3e751d4066f58cbfbe8562457ab8b258
3e879a0365133fa862852147c705c4f7
3e8bc8a1ee0190061e315819736b598c
3e915ba8983f572d047123a54e329585
3e93d945c0268a784eb08d9e52b6a0ed
3e9e563d30e7dddacf4260a83d98b63f
3eaaf35f2a1082262c7cc6ba52fa4c15
3eac36aceb13160741e7e2860429fa78
3eb0cf60e470f2a59feeb60991f26a2a
3eb3aadade86ae1c8654b1d0500a347a
3eb78f5afaf060e7693f1254864dd94b
3ebb5b9e2f35350b1548cc6f7a28504a
3ec59c4bf94a99d4e12ec965b37e4144
3ed238ed31ccffa80734548df2e74437
3ed32f9ee1e814ed7b1a3e2fe5eddc0d
3ede8164bad69a05877531f6059037a1
3ee2422444ac2991e0545ffcd3be8d0a
3ee40c2f1003545d800240c2149f2332
3ee59dcfbb9b0d06754b8a9f148aaee4
3eef2b53c0eb6b544a574956299ac05c
3f02c3ac96cb0c9be8655af2ea1aa3ae
3f0435496e1378f751297e158d0d5436
3f063177f57bcc8d241ecbdd2544430c
3f0e687e1f507d79ea1311c0eb3ffbc7
3f1f81df4a3bbb6651a9d2880c3c5f5e
3f3a45ca5304640d9e250b42dc765906
3f40caa1faa2ecf0a580c3cba10fa121
3f45d9fa3b0441635e0adbcda2687a0d
3f4a1bc29bcc08b0a8d285cb22558e30
3f658791fd5e02027a1cfa88609b22de
3f678caa17e7011b2fc33fb916103244
3f702ac66cd6c7d623d7d935bd96afc8
3f720da2107da160923c34a59bee6dc9
3f7a67a4eeedcacaf49d28f65634f2fd
3f80ff4baca53a0a0ad4c295564337c3
3f829ed80ed86564caecfddb508e8397
3f8c3ada325941baf25503044cd55ceb
3f8fc069a733e62c2017563f04a4d121
3f94f3f8b967d77018830464f21041e5
3f9e5df83829d56e3475df6a67fb1a37
3fa733ece85188b4fe3b5acf225ffa96
3fba44f6a25a33062657f253dcd14542
3fbd2d707fed61f007413068a00e836f
3fc643414a5e09af2342ee16c0816db0
3fd137dae1d38cb8c5b886fa5f2bd816
3fd9a798ac0085ed49f2c62eebb88d72
3fe13ccb72182adbea7b325cc3cb9aaf
3fe5169bd39bb7d39fdb01b7a92e1745
3fed004780bdce761072d30e05c92ee5
3fed44725fb25631d43dcb8f36706468
3feeedc78140a7ab21b504e862eb186b
3ff028fd2b2ed01a415934562cedb495
3ff4664bc650c8497f4930d2a01656a8
3ffbe05cd6546a3b0af2eb29f3155828
40055eae1591ba5bb6e923e4b04c581b
4007eddbf82949e7f7b038fd49195844
4009996c29a181a17468fbcf83ab3624
400a6b7e2c0d0ba792c6824eed092d3d
400bdfd43c5f8b30e041f61a078361f7
40103a42fe9197981be030a0ac054d31
40126f2e45fa8e4782100fbe71533220
40189a24c62d15b9dbdf70c1fd01f96c
402496d864ae277e0f9e37eaed05bcb6
4025822a0a7e48dfc7432c25df718106
402944cfa2474f8ed77418f65ddf5d6e
403b8e4964734dbbd9c0cc3e865ba546
403e10b0d96c7491ae4ddd46402a40de
403f888d3f49706ab890d1c9bb436ec9
40486e5f5f1864f5dc2aaf33e01f0d9c
404ba1763fa9f61344341d4ba6c99f00
404cab2c462d38635eb721e772876073
4052622b8084e9f21827d3823a45b571
40541836941452ad677889f6771822d9
4054eb7ef86fe8da61c1c8420572c285
406375f26117a14d30f2e725c15b7610
408646813d4aecf0cfb4056e7d9c0cb4
4088a0c4fbb2526b1eba0b9c443b1043
409047b11fbe2563dae5a2503b14ca7a
4094f0aab5c2b822cb64386cb3a0f950
40a05e0719b66926e178446f152d8bb0
40a281ea2367a5360a53e164513b17dd
40a3258bcea5923313498fd6bd87359d
40ab84f12a96b13801235632e27104f6
40aldufa
40baf6fe62ded0a31a0889a156edc14a
40ce551cf63030d9f2c53ce24d6c03c2
40chevrolet
40d1df880a4ed7ca5176fd6e2b3be0f0
40d20eae1e39f56078c3197e50592617
40d4d9ae4f55ecd855dd3a5c35c60b8a
40d5c414307c95b819b0e2bc6b5738a1
40dafbaf2f8b45b04a4cdc483cb8cf45
40errebebe
40f19e2ec921da98309fd52b41799325
40f2c2f11696bb51c52debdb40284e44
40fb170693c6d93574e1ccb5327eb113
40ff98c7374c2495311f834d6e9b3c70
40prestoesesto
40soycastellano
40tuslimites
4106da6d32c982c6a5177db2028154b0
410deaf84fdbd72d61505f03bec2c38e
410e7da2f7261822a4107976c997fdf7
4112616b2dc55b3138cea2ba54f5023a
4124d5c56b1f1bb6a2e8fb939bdc3e11
41264068245aee2b17e90664221740ae
413676025a940baa7bcce2d070f3c0d5
4136e4e10e5f5003cdd2374c1afb298f
4138f4923c0f75faa29a1362c4bea756
4144cd1543d837e4c8fa70220acc95e1
414d462cf531f3379994147efacdc527
41521a9002e8e9c224a6cb11b8a5c7c7
415256e4c1a83aeb16e80197229faf75
4157fcb30a5c5d3730c71e575a80e1ee
41585257s
4159425a80ca25656c02bc6041ab4a4a
415caacdeb33cf2f6c29a0a74487537f
416345ae101f164a6ed65cff543b5015
41642e3936f4433ba879717066d848ff
416705e712d0065321122c39b67a3593
4167d66de3c814acfe425e94c361f57b
416fd823511184ebc172898bb555e190
417824d9deac9d55f836481bcb1a60d8
417bb26aa5e68761a26ea077234036f3
418b5942c458f6e87ec6a7fb4f2d7450
418fa6054335b81d8154ccd52892f53f
4192719b604539607658ac5dcdf67b3a
4197845b39143cb4dff9e0e24bda7c96
4198ab614b56ad7e2400044cfa47bc24
41a0401da77db4cc671147d8ef2dcbe0
41a393c7447239c859bc387c1f7540c1
41b7a3d09aad79d347ae826a8b0b32ee
41bf8f3d5b7141c36ec687a3e6b3fe1c
41bfc7360b4de054a02e5d0ee09702b3
41c26a6c9705fa5dc62202415b8223cd
41cdba5799de629a30cc7fc5ed9dbcbb
41cdbc8c5f05be0748735e66a796b888
41cfb3234346222d9bc80bd1978edd8d
41d81b3034df68141e3bb10637d45e76
41de9d0011e552f4717a05e95ff992ca
41e0555cc266c9ac387448e496969166
41e3309af629869b66924eb413189540
41eda4ec7a01da9c56f8cd1ba8eb7a84
41f725ae6ccb02dc8b4b9823f7341101
41f889c8485b81c49373e18d4f026d85
41fc1e71827e4a1597cb48ec254051d3
41fd774bdd004cc83bbb99b1ec872083
4206ef595126dfea46a7d0fab6e32c11
42085d6761169843107e0d0da90b138d
420c9b22523c22daff1a8adbf100c3f2
42106a856ce8d09637380008ec28bc01
4218c9605fd4532185e8a8fd4a15842d
42252258cea36bbabc7fb10f7f558490
422698598fb64b027bbcf06bbb22a885
4228e5626ce63c553c91157f0979c4d6
4233b489cc59a8e4330c1d00e38f38a8
42380ad3572ed41117b6327202af2e9d
4242a35bd19f457edb646300fbf23edb
424811109d86a5a54474be3d0830afa3
4250b5c33c8447bf6e55d56cc5f59383
425aa2a4b077887f080328e7bc751a4e
4266d8e59894a4b375b4e137e4b03eb3
42789833c77817616137ca048aa84e89
4287715b6d632dfe6d3a8967d1fae878
4289b27dcfe3d8e1be3d1d870e58320d
428c29d588a6f697ad9ccfd5e3b9024e
428e2debfb2a8fee35ffa90aaa9bd632
4298692602059732baea011ed7d828ea
42aeb749e0126b44d188513ab429521d
42b03603ef6b441534019c55779b4101
42b7847225cc954c2574077c29966c0a
42bf27ac3b5b405907aef41f1869a539
42bf364eeb06377c2704202379735240
42bf3b42738d9fcb1837e219ddc252b7
42c5f69573a6487af877bd05ded50143
42c6ae646eef1d98e4ea64087c7ba62f
42ca6d2f87436202f2a09aebaae8f92d
42d51cbc2b7b4c77d3c17065c6ec4046
42d7393267f4539ffeca8359b9c0128a
42df1b4a2acb97d63b947220d5b5370d
42e125c1c4e521cafe43384b64db73b3
42f0376a9b4b090d9a5446da35953c55
42f2643f6854a613bed692f4a108ea10
42fec43aa226f53fb1e0ed8facec41e1
43022e4eb27d5f403885999777bab589
4307714013a416e69ac7268610ec5788
431f23ff317fd33cde8c3a409b92cc72
43287a10abbd4419f812a958f014e1ee
432e241771acdf00e3677968c4e4ef96
432f8ecd8406681b0549f4e6899ba992
43377a724e65f7bed7a0ea1bcbb4665d
43433605f714a42a71d674191b5404b3
4346a66e4a47cd1327cdbb29d3a1f1a9
4349d13d2766f9ca7d8c1d945102c4c1
434f75977770cdb20f523561c622ae75
4357296511696c60329a385992dcca30
435c62cac0e3dc4956f238ac802a3842
435da37d739d97e7bb9a465c7172dee1
4365595080dbecd63f3cb2533237d3fe
436e6ef30cfcf076cc7597941fea470d
4372d6464b7a553ec7523e2b476ffe7a
437ae64f727f24972e48f28d43c23b01
437b11c8f45a928653cb8ac825427631
43811d07e202370d79c74897c0fb5425
43814ccd6e16bc2ac9ef1ea00c5053a9
4390c5c797f7336975cf32b949b32fb6
43924452c7955e5b8e99dccc5767d22f
439c5af1e6772f39b9e42161ad5f8532
439fa64f842de0c52b08fcadca4da6dd
43a16bcfd3aa90c574920e5f611bdaf0
43a3b55df44ca33997b715681e712329
43a5638cb12422b3868c8cb3da3e7dbb
43b91bcefa884fcd7a478e97c01eff15
43bbc3adf415e92c132af2a92e16e692
43bd8d70d85b09159a3af2838452c42c
43bf711b2651a73e0628bf7374d62ebe
43d094bfff4ac4d13d16a7f3a6f602d6
43e065348a27797be5e496751bd191cb
43f84a322e2bebf0fd5bee55ef045039
43f9b20a7067052b8608e4304228ef42
4402a0513dce8b62476946d5857606eb
441f3c31b67057c6c3cd0f373b97d4cd
443440cfebf108f76a82a656e94d30b8
4434cb1ff7308111293b327d97cba4e3
443e579f5873a749cb635ebe7f5e04ca
443fa2278f0523edf655bd3f98ebac3d
444c0aacc595003119ae7e1b56ff7d06
444d3bb286cb21a8d995fadf94f99f1b
445b3e54fc6ee1ee6465d6c0061b7723
445ca89ba039021f6505fbead471e88c
446287aa9073d62d323315ba4aa89fd7
4467422c01aff394704d0bc40fbbe5ca
4494d49436a1bd734c5a32132bd628f6
4499a5ece2225c5fd9d8482923ad1ca1
449db2564233e2a6cdf8eee10625ba42
44ae00ffbe578947458a89cda44d2f4c
44bdae286cf3bee446d40d3032bcae9a
44dd68bbb4ab899b04d178b8af1af411
44edd37489ae8dc5ac2b1023b8f00dd2
4512bd41855ded9a6447127b7d65eca2
4514b6e1415745fb98ef9917d005af88
4515c7fc15482cdaa3e25475ae39ba0f
45173047d5224a07091980c51b7628dd
451796f6672737a1388796176e4c413f
451c0c7f84bc2d0c93bb2053a39cde17
451e3da61efeee2245fbbf203986a122
45230b9e8593574639d0939d5c834113
4525fafbb2be88a7abdc4495e2d3c0b4
452bd859c8855f698a0f679cc0da3529
453594f9148d7775cce371a56a4260d6
4536fa12f89847d861996a99a78f18af
4537bead24b68fe1644b73906a60f223
4541e80e6561a40b80cb3c62b56c79fb
4542bd05db91afa37a658bad67b23ec1
454636bc403e80b841c0d9e27f9577f0
454e5d9900a979f2da8b8114e2461602
4552a8f668ec264bf933ac18c58070e6
4558b33ac82e2c5dd3397461c0615241
455aa35d06899eefc71640cbe37815e3
455cc1f7761a143a5f2b6627d26e9c8e
455daa2f5a4b95df3a9a932e68f49747
4568f2f071c73e093dee481d607fc01e
456c01b6abe8f823bfa6dc9a0262e8c6
457a7b748a06404f4874ce8dcafa18cb
457b5c25e8c063cd5eb376172a0dc33d
4581d781fe2f8f7ce2df344cd63ce1c9
458c5e74f2af802ef84f6ca534d898a2
4594
459914a1840ead57a95d61fb8edb6f7f
4599a2ae73a5dce2769b4e6e699e4a84
459b864a616aa1cdbc61e5785128ab65
45a880a3599ebde7a6ee271b33878b55
45af1cc809c4d3744882215ec8ec8679
45b599140db278580fdd649d5522ebe6
45b7c6a0e1221fa790dcb98aa3faee26
45c5a276a37a9958f4178b1b6c76ff7d
45c7f62d952aae8561a96c57a93d485f
45cd48504da7da4525e07ebcde62b938
45d1c4e9d5f283d3dc7d227ab4ffb774
45d6ae69fdb4449e62ad0d07ca3d9801
45d86e02fca263a1bc4b0fba103c8380
45dd4a86e8918d33f2f9751510a75e2c
45e1e41471d5bb1716077b40c605ed5b
45e49c4cf384c8d83f4615939fa2bb22
45e8331e9c3abefdb9ed85e62126d0e1
45ea08f8d76f0e431f03188b1e0fa9ee
45fa304c0744f342ca02c00d727a2f9f
46021bad7283ebf3351f468e1e1bb193
460ad54ef8ddb8b0335366761841a8b3
461d5999113d07c13d4589f9d2d7a735
461f328b0ab426ecaa6c2a2c9c0ea58a
4637a5fcf62f082b04d27875f0308172
464389ed2369bccce020c1ab7cce5095
4645d02ada1111cec33b7c0b81c9766f
465ade5f815b4a3f2a34766b78c60d26
465c0fa260f618a75412f6ee037bd13e
465feb74bb33067b2ada4760bd972745
4670da4c3a51b41595dfa8be4f356f75
46784f7b4ff3d65737e93739eed41b22
468784270013677419af1083915715ba
468979ace023bbd9e1e8ac6ff35ec488
46910
4697f5662239a5c5137768e66c752400
469d10f4bf4d6305e4cd2873f4cc1421
469e08dbbe8902aa54bc70084f57f5ac
469f5fb4506b403242be8439da908152
46a74ea06cd0e832af21b16a647b7c36
46bc43c33421cbe39deaf500a6a5ff18
46c1b91560b7db71b0b4a1c1554503a8
46c471981359f9206ec23c29decdd9b9
46ca1bd965778cb156f0e2223dbef7a0
46e4570ef1ee4e8c13f7b362e5fe3989
46e6690df315a04f76515a83b7ceb7fc
46eaa392dcad8aeb51af0ba9ff6f501b
46ee123fbd6801a89838c1117b3c6b3a
46ee8c60e8b967954629016bc4ef2932
46f7f24f8619269b3e711aa9f2ea3dc6
46fb73e1824a3ca19b3041fcd32622e3
46fd1e71b2d198cfc19cf4c2dcb19182
470955c8435120480049ca2265af4a8f
470f4efc8d0314c7e1437439306a2779
47153bea8f971cf21b667ef45a19e85d
472522b9c0d427a7a1408665891370ea
472872f86579c653aca1c58e11e73b7d
4729a9976c83720f100d474f6229437c
47312b5629ce363a04745929e37e3f62
4732a106b63b539de1cc35af88f03b42
4733b099f7bcbe7bd3afdf57e367bc00
474820fb863415bc0a632e8f54a819a6
4748b2265a9e6bd951ccd577b60c9404
4749f1eca0755bdcf4f00fadfdcf15b6
474aefea51efc28e71d4f2e53dd412e6
474b89079838949c2e8a175cbfa2204d
474de7446984375afa9de497fab136b0
4759edca2eaa49c217e68b39aacf7a59
475ffc21075b0f779f43beb6c06c1a8a
476a369ed9b5c07e8c8f8655af554192
4770f8237b06093679b5af2459b573c4
47732a21e08e245cd4aa9959e7fea10d
478658945b7fe88ed43b6241366be6ca
47891dbc85de389664d9d7b3967d797f
47958c40a8d324141db5242c815e1229
47985171eb3a5aafcacb1b50a76ad3ac
47991639290d39349f7e9bb58ca2dbf0
4799de5d1a2a3ed76c605cd7cf213b32
479eacc777ca007db8dc1047092b6827
47a43193502a7aa378d7fca00184ef8e
47a6e24d4ffc4bd5e1001fcc57610a44
47b14bf8b1f0528d4e6d7294c63a242f
47b40965d353616148777e8f69ca5057
47cb74414e67f1522a3ba2a6be87f00e
47d9136b718ddf75f96d17c620a90afb
47db54ce9205d01598dab720f161055e
47e736c3ac04fa7c34a86758a6e23529
47ea0ebe087c8b1a5eea76431dd81a49
47eb3d9dc403c22d867d367b2f36ae44
47f44aec4228c8a12a1a53447784d5a2
48070af61891c70a3ea4686ce43058f8
480ffe5010294dededbc593dba40fcf8
4813d3a3915fec19454b232857fa0091
4819ebdf2a8627afe29ff62f91c40021
481e51ec62e94ca35006166d6f3e2c49
482399150941fb20f3a6fcd74938397e
4825662aa4493c72bd07e8b4a5b4699b
48441b369dbafd57b8bfd512ba330f6d
4848872bfabb82f9acd7675333451b31
484db15303c95fcf7c7b7f4c4a78b746
485256276e17b380d78dedbe8947065e
4855924b1649a82bec1306af002191ae
48576fea10710b2f0ca8c50ffa5dcfd8
485a25462d153c5144ec6571a6687ea8
485cce568693b98a9e4c231589e46966
485d99003b926104cdf3dfb724589224
486405a437467817bbdb6973400b3677
486652c97f9bbf6c26cd97cc77118944
486d2adb2e157eb546ae34d1616e2dcd
486d43ded75072d5ef570138409b1fb1
4879cf4c6cb838beb1003c447128ba91
487b98f7f628c19b96d872dc1de9f16d
4880c50c142c17421968386897837a47
48898ab2efd75366eab32b602b62030b
489b0f334f9e0b8e4770fbf213a76079
489fc75368eeda8cbe3f801ec698bb20
48bb9b51f9f368dc4dc292a9e4251a09
48bbd0fe96bbb7c76e8283d9014c1cbe
48c77d58b0a98f0660547cc6cd413df3
48cd04045d690e718344c0eef255301b
48d9793561df5c7b3f4107c008e5604d
48dd94f08eb31425b62190bc5deaf7a9
48f9db22d03e9fa48f6afdac37be9511
48fd12de338a74ee60bbedca20b89705
490ef1b1003ae8b00cfa807cfe76448d
4918027a3867ed2bfe33becfbe7e7354
491b97739b69525ba59b65ad0303db2c
491c6b1282add73631f29f5c0adbcfa0
492919356ee49a18422f027d4a3bc207
492f0a7b27ff6bd81887facf1445804f
493606211740479ab02d431d8f7a52d1
4941a7861cc7a34f5a7d84c210785f7b
494ce4dad299496046c309a1102649e5
494eaaeb2372c91c64517d67cc52aace
494f1045802b5b3b9d3364aeed137ff8
494f2423810e8fcb23c01a970f2b5a52
495246fed9db0ca7ab081c7875e50dd5
49599f4391b1903b0ca29bc2ce45fec9
495d01736bfc0ac3f34dd3fd0b8caf1f
495e5c0a4c85e8b2b7fcf119ed3b88c8
4963d82da3d36fea69fa4b1b5179bd5c
4967c5c9c8451b4f88508009aea24e99
496c59febf14f0b26f841db600f42a50
497601c12ee082e5f744f4a5d533cf86
497aadfc2e630903000f1cd0593e2790
497bffd67264590e664b589cf26d40da
498d3f6a0cd865b0ac2004c316d42565
4991bc6b10aed8ca06642b0a6c2f98e3
4997168d459b984d8e4782142817e978
499e22635ca634b7f81edc3b9ba6312d
49a9b8fcd4a2fcd573bdfc750b319559
49bd6ddf94d47391ae0b920ddb6311b2
49c2eb170fd0759394c1366cea5158ba
49c632fbad6e6490590689f3c852ded3
49d3003053d01eece617d44305a83f5c
49d6eacbe06601f35e98907fb4ff42b1
49d8325d7714c2afd91aa12a2bd104c0
49d94ec882b4c339df89e7cb25a7a64b
49df83ced6346527182ece6bbba9d236
49e335afc98ac5220e9ca175f23ae84a
49e783be1034c7e3fbef6a564adf2b47
49e791b9d0ac274b0ea920bef9f16cbe
4a0c5c31c6dfb02df1d8e52928e17623
4a0d11c0cadb50325463cf0fe8785ff7
4a19ee5c432d65a1c36ee7108844ba1e
4a208648ae034a683966f1d7df0859cf
4a2103536e07d9ba166108ef85caf2db
4a266c75934b1d0f1c5c79ad63e52898
4a2b9d39239ff3f472b8817fcecf22bf
4a2c5039b62d6b01bb8f5091a037c5ff
4a2f0073c8043c30f39c8e34618e7ac7
4a43204bc40688190d44a53efee697c0
4a4b5e53037ef8346475319db419c2ff
4a4da9be7bf639a08ac3c64d162e00d7
4a570b0af2fbbd1d4716a8f36f809c59
4a590919ba57d0c20157e6300d03d2c3
4a5dfee3b6ba8714fc708454367178fd
4a6cdb02c438c2f6724693a0744c3cb5
4a74e605c4f7ee52478a55cd51ad71cf
4a76f8c25b7104ff5592d87419f5e67b
4a775003e808a8cc9a5c29afaa19da8a
4a7c5a2b173aedb70c825d615feec00b
4a816dc729960354c821acfdb2cb5f9f
4a81be1b1ba75883376eb032dd5bd791
4a88676a71dcd482a224cda3cdddecc3
4a8bc5669e607cc2073b41e8535c29f6
4a8ede94adbf92926dc0ab1dd788b0b7
4a9423fab72b80f7746ab3329a77cb0c
4aa767cb44f76337230768b640cfb81c
4ab7f4924ad94aad347d16f70223a11e
4ac4f4b42c2b9cfa5b165428aa88414c
4ac57683766968e95c7b43479cb92ebf
4acb6f9f5f639931fe4cd1151783888d
4ad269cb99e0c7ca8ba0c1bcda6a999a
4ae30abf6f0a6bb371853d55c88609c2
4ae7215f76cf03b266a1f56b42528eef
4ae7c9153b65d30f35cc5f8eb7b035a6
4ae8b183551ddcaa480182b755617581
4af2c0fc3d4a082aad73607f2cdaadcb
4af428246c8671e85e96bed0595ddeb7
4affd578dfa018561f770d8b98a13023
4affed5dc0fce0ae656e8325c887189b
4b0025cd356d61fd4bd588a12fad0d62
4b07e3915bb79aba57f87166cee646e6
4b084979478fd8e5c3c4cdb0d16c0a88
4b0dccd3e3f56c7da2fdc5a5e14aedfa
4b18e70462f6bc1aaebe3070b60ded0f
4b1d1bea7ce6d9e19b3f64d71a6e6e2c
4b209f3a3d9a6dae4212d093b92c5782
4b250d4dbc9e81c899b128ebe0292d17
4b34c961475ed690391b05c118606406
4b3712b97ca927dd208c83494c1f9dbf
4b3ec5e3e471e04ac4a45660bfefc8cd
4b41adb3a4ea65cdbc999a63c30ba553
4b479b5f84980c1f38ee502c0cdc9cc2
4b49ed868091ff8284caa55e706046f2
4b4bf54954420f2732f5342b4aef7a16
4b4c667df6667bc2084e02e0a0f55a4e
4b5719b1cde02118d137f158763ea094
4b5a53fa32c32cdf31b541202e0f2c37
4b5b877ca733f8dcfc689c8bfe863eb0
4b5d3012cb93d23ccb6f6e31f17401bc
4b68c8ffc67640849ce29576fcdc2fad
4b705beeaf197bb8b5655c9e792ab876
4b713e7d50c5e26e80b197680ec7cd9b
4b7325eb5f447e6c687dfc8029de0437
4b758022993b06573f66cfb8c11a26a4
4b7987c0e8bf838e9704f927dea03e13
4b8651172006cd53d056f64889d6982a
4b867537880fbfce7ec92d7fdf9b9a78
4b913f56704194a747d03708e357c12d
4b95076183c98c420e84a8a4892e7537
4b961f09e03996613e02ea316f12c6fa
4b9a96d90718365f37de9c5f8057992a
4b9eb65c2f152eebb53e6e19c1cde6bc
4ba1a8364087d8a8ecd2394711b82b07
4ba87c356ba42d5612db402ca2ef611a
4bb9a9a3b8e4d16fa7837d3f6d72f56d
4bb9adec882902d82cfd6aa2af69b5e0
4bb9b4125f3ef08078036f6fda1dee44
4bc219540945284fb9c3d4c411d6ea17
4bc305ef4e4b8426e684ead4b74d7bfb
4bc7b9bad2cfb5b5a51c396e18c40a32
4bce22c6bf0d8621ac9ad2b5c5853462
4bd7d72f8fc8053bccb352fa507efc71
4bdac0152379e11190c754ce9468194d
4bdb7a7544166839dda95e6655ef88ed
4be40fc965eddd8d057bf54e9e9898ba
4be7f8528169968a0cbf1d1ac9e1d935
4bf5b11d68ff5eefbf82a4ec14d22ec7
4bf5b81b4044f6afc2ce59fe7194b858
4bf692d2a6617b642a790b7cc6d19534
4bfc3b4bd312bc421235779408f2e9c2
4bfdb3a394f25a71d89e526801f67f65
4bff31816d9fd2cc5898a986bee6943b
4c03e8852198ce9d2941c0f82540b0bd
4c0e4bc3c1ea96581b721afb13c1e1bb
4c16a0905bda1c4a36958851b5a7bff5
4c1a82770ef4b3c2c9776ee6dd082109
4c20f0d6ba4b8bdb34b07669d226a647
4c28dd02ee52cea2185944910483e322
4c31bfb6f7575a671ed96b5d90b6c529
4c399b48357dfe4f49eb8c5aed6e2777
4c3d544bf200877f6350c07bc426f399
4c410a5019fc5ab833a74cd017e1cb4c
4c48b2d6164aa84af713d0c6759c75cf
4c51e71e03478416f603502065fb29d4
4c64eef20207fe0b22dfee8dea8a5ed8
4c6a2e7eb37ce5f7b9a7669d315755ce
4c6dd61f85388b5e9594fc886e921af0
4c72a6af293bd5fded8b8c2a9c6db3a6
4c72ac6694437bcce7686e36e569f231
4c738556b1451db81d51f9987acdb19e
4c8299e70e263a1c5e324b7c33f799c4
4c89e1c18267334ce3e678bda1a649ec
4c8a641a1b6d43cd64bce5f4622b265d
4c8d3d166a259988c34e3e8072701595
4c902fdd42c2814f14785c82993bb1ea
4c9056b88908e8a35910b0fa2515d971
4c9addba3db34fb5d3edacbf39e07c21
4c9e46881a02cbb786a5325caa81a1e6
4ca3299019163b6ca44ef034de4a7f5b
4cb20cb76f0de41ccd31bb8b8b555489
4ccc217e5cc094688be9861e27d23f1d
4ccf435a21a663516734510ae819efe0
4cd64b743238167d766e747252673b0a
4cdca2bfb1798195f0f20f6742b81034
4cdce6fa5bcaf1b83e6b4c31ff74d4e5
4cddcb59068ea37a3c6cd1d14b81ab9c
4cde6aafc708b0d98680911a093243b0
4ce89e8dda3806e8941c0d6489ee736b
4ce9af277978da2afcd577234d3e9ef3
4cf7fe07b8661dd60672e0af0b693dfb
4cf8e3cfb2cabfb8e1050c50404e16b6
4cf94fcf2fdf6fcf617d48a3f96f6e94
4cfc78e2112d320c309d9db8626f73d8
4cff9b7458c43a03a90a53a2ae50f99a
4d0518f8fb0df11e95378216935fefd0
4d05ad8d3ba9b7db3ed9eb4b91887d98
4d0b088adec2545d7319d7af90d30d35
4d13190df241924e36af89c768eb1ea3
4d1c25a24a5410ed6c862ebffcd6c123
4d1d2f4b4a3ae935463459bf133bb2e1
4d3782dc5d20cbd0fa99acfacf6d424b
4d41414f7f923f034fb792a0e581db02
4d4cd5102ca18532c56a53ced77d562d
4d4d61358bcbe5bb6537aeade180ec8a
4d5995f36fab49725ccebf049e13f5c0
4d7588f75db2ba139b39685f19215bab
4d769defb1669afa80dfe90c3a799e66
4d76a3ccf20b1b896987d38f04ed2107
4d8e6f044325520cc74a4e750728c6b4
4d96b39cccd8796184ac6d96f9a04272
4d9ea7f03d63aa096bd6df4d080c6b6e
4da40ca5f46cbfbc6b138fc191bf533f
4da96f137f0c1aad8f18f865daf1b80c
4dade60c8aa8497e4dfc3622b59244fa
4db3b9e2eecaf76bdfb405b55fa1d44d
4dc07eafe56c0b7075802d66eec23ea7
4dd9b4bed66f604635a0c6c5b7576e86
4dd9f9f8f9d6c0ea1eae5c0fd8fc5309
4ddca09831915e3ca920f86e4ae32d4d
4de0dfdf715a6d90ccae19471c9ba9eb
4de19301ef5adc9bb4af03e65058f861
4deaa7b0237f179d8ed49f25d14e2283
4deeb5ef33700987c211274432b2fe62
4df62946692a605d1ae8250e7be500d0
4dfe4384242d20e5202aea541bc6e636
4e0d751fbf2fac3a0b1f3771ba441bd9
4e0ef0936fb11a45492b40331f09e847
4e181029fcdef42425b568011b1c069c
4e2ca1b82964b858f0aa4ebbfab3321f
4e34940c5715fb89ae835e160189532a
4e4816a922f6819d2b7dd7158dcdc418
4e4b37265e0d63c1687f6145ec657c59
4e4d2d88be7fad84fbbb06a06dae5e31
4e559136b9cac5d92485be5a6fac6338
4e5873df45a92871959ce5f2b1685e84
4e5a7b3fa2a236e05b14af71f8fbf5ab
4e5b5c26dff45c394d8485eb9677752e
4e5db51c778160dbfab8d783f272b9c7
4e762546f7028811e8ad450ae66108f5
4e7bf799b1e5c193f4ed76f0620fb2bb
4e827e2781b1ee51e3f5b8b0807ab114
4e8397b0b5a24f4370357fee367228e5
4e8446f889db88a68b5c831adb7eabf4
4e8790c77b91e6a29a4e967ec87d1321
4e8e000652e048147ffe7c1e3002df98
4e911e921caa5f166b08340fd66f76cf
4ea4dbc71bfa39694ac0370bfba78130
4eaba9112a1a1835d6fb797fa4af4dc8
4eada564cfc3bb584758679328a330f6
4eb333a3d12c13aa6e4d288e1f3863c1
4eb3c43e89ad91fb04efed441679d424
4eb6f5338b272189a31a9c06981cb38a
4eb9bf53d9b1ec023597c167c6c997df
4ec05936221c4c11c2fc5edaee16c65e
4ec27b04e78db8e6f856dacf4e67a54c
4ede1301ec56415c14437accd463d992
4eeb016e28cc68daf099bc8da6e651dc
4ef0a441b77aa109502463f4b8861055
4ef2e807a9cdd84730e332e56031ade2
4ef6d08aebd4f20c505d622bb697e5e0
4ef7bc853c4087d5d699f56434d1b5c3
4ef882ec304b3d70127d1f774abbc6d7
4efe9cf6cb13bac98ada387559f586e6
4eff58dc54e52ee9dc9073e704250d93
4f0fc0702cefc1cef723dee132f3f25d
4f13bfaa6d39c5958987d19cf08d1ac8
4f150be7baffad541542723a1161e49d
4f24d6f86d3b75394bb7dbb2b1750fe6
4f322aca2a43c39aecdc4d82705e223c
4f37c88fabb0f8421ddb0e4b55602db9
4f499d50e1b67546a632d0d971c22014
4f4a3f49e66e5988f9794741074187ac
4f51e883385a703169178f4fa5c73c45
4f59b69e6b717c4f2013dafffddec22a
4f59b6aef3da9f889637442d08c88113
4f66b8b0a87ed0c97d54774d11a02b38
4f7c65e813fffff59414af0e13801a10
4f7dba7044b1d69b3c628fd823f90efb
4f916d24a2511c1c2721faa0d8a06261
4f95ef4e59b06b891463f57ff1f0f01a
4f973a2190ed509859678a4f90693887
4fabbbc929f17a1636a8aa976fcffcc6
4fac2b64feb6b4b35fef4d92180049ee
4fb47f8ceaee6adcc6d4536f33a115bf
4fbb0b4c090af17af028fbbd015064eb
4fc8aca41f5d5f006c001bb404a4414e
4fd0608c4b3ab43bc9930e5a344701d2
4fdf6260b8be150f66ec76defe4b4a15
4fe0a7764324a33d930f0a11d9890163
4fe987e589bf28c227cddecb16c4f14d
4ff8c7db92041114c0064281f1225dae
4ffa59e81d3071624a1d308bff7360c8
5007051491fbd5e58b08e968c1f8915f
500b19281f09b4a44016a225264721b6
5011a44ec012b75cbffaef9e8eb04ca2
50129cc2afb2a1a136983234a1890a30
5013cc4a6c157632d962c0e0751ca939
501a4ac2247efa69b8d7c74ff319cca2
501aa9dd6e8b4589b53787bc50878346
5028287ad2064881745a68dfda28a3f8
5029ce58bc111f02084d65f5237f9001
502b0cd0f0f2360f390e97826b323a2e
5030350bba380fb4643c066f9052ff60
504048f24456076850d05337b6db6c11
5044b4ffb1e53b5fb4e5d56829e546c5
504852dd1a30a3f77d3af17c4769f0c1
5048569c731a33b1a608a5039bafe4ee
504d08564123f0a0f819208c7c05cb41
504f3cbd25095d069034e02ac1146cea
505b836669a3dc4c550b8e89d8e382d6
506843d0444b745ab744fc6cd1343572
5069755dae862491ed6cdc603eaacd7d
506b55727c67487d5e71108acd33c46b
506cf14974fe5a4604b38ea9b796428b
50727a36b2cb57c3af63a96f91e02a9d
50756f3daf83f1bc73e4e9c47c23c815
50787a7ad712e42669eedc748d8d266d
507ec24f8861f4621bd7dcb7cd2fa201
509048d7bafc87c69e7e0d0ffed1bc1c
509d0d120a677362d5394ef74e2f4351
509dcdbb6851dda5513b5ef5f274ebfb
50a0e12430f63a720dc4140a7738098f
50b717e9eb7cf1ea2fa6848379562480
50b812643ba921daa70078351eb599ca
50bc3b22d3ae5dfb17198f22fb86835f
50c54509353e4f72da4ba4ea1ff07585
50cc375ce83b164e8f442eb764ee63b2
50d5370aef2ec9fd93b4eff94a847f86
50dc0fd1ab19388304764cae09e92138
50dd730641e2b1f470614600dfa2aed6
50e4574b29dd08ae011c7b03325d6753
50edfb4f163bf5ec684b070edabba061
50f8236584f9c221aeb580eba01717bd
50fb2fb5cbf3de3637c21d5eb02e10b4
510164051dab2d908b5b2a6de6e271a5
5109685b2f9377ec3eb9637ad7cf045b
510abd265bac1698e2d6609f2a03e187
51131697f327bb7bbd1ae093c00a9b6d
51146e16116d2512fa77705f40911283
5116330652b38f7d2f762a05a806135e
51165f8d7a7d828a79aac08336c3819e
51173bc8c0becb361f147ab229067a59
5127150b3c944aef3c24168fc5044c89
5134238bd6ab4ff83523d7729446e6d5
513455576ea555f181322c70621b7e6a
5138d94597ecace45ec5f96948f277aa
5144167134274894
5144fb8bb0e4393f060707f27c7d00ad
5146506a50c753b02abfbff93ea3d351
51476f382cefc5f4141126fb9d04bc1d
514e96da3feb24e32e2d3514e66c2b0d
5150adc7e0dc1f173eb4dfec01527ec9
515ae403a0be69393229c82ea2b94586
516671fb14fcdd8337fa2755bb9efc5c
5168c328e5bc5ec863c71fb9c63069ab
5168f6bba32dbed09d4e0b43b91efe61
518313ebd9ee9a0822f41408cfee4235
5185e033e92c41cd2c76e2d3bc06fe82
518fc63ce262ff1ace176de7a5f7ccc5
51980ac0207d937e89e3e953d027f9fc
519eed681e7aa9457f64cd6920725ed9
51a49404a5238f5497e555db4d618dd4
51b027d5f91cd9f874010ed9b2ea379b
51b80fc3f55cdfb744f1c822a08a58f4
51bd8a78b518113f2b07cd3bb11e01e8
51cb7ace77b193f64df3166adc7be8ce
51e4783461731566b3cd9989b256b2ae
51e5f2f441b5e46f688d943f2cf03ac7
51e93e76fe90f9c1896d8ff26754310d
51e9741d17b1f38d97b41600e6d770b2
51f122711a15b1eaf58f104b5e33f3de
51f5f5cae072bc9e063faa172a04e725
51fe8dcd5072d91dcf42c45003fd804a
52008d401564efcf9dc58de248ffcb75
520185cada2d77a0dde82fe5fc8cbedf
520310834227ac01068fd2831814e852
5205af60328a6f2deaeb4089b1a1381c
520c3ae5f489bda793748bbef6195344
520da17b1b8fa4989dd7fe9555549321
520edbcb55e9cff512b60f605f22aee7
5212552b741608ac179c3d6674c07eb9
52158688be63751b0acf4c9818675f9a
521823b823003722871b5fd48957b4fb
522d0f291a4a661ca575d4d34fd6ae2f
52332edec33b04ce3f6ec908e2b12763
524190c742d30f1b4a71151f804a60b4
52485c46dfe325a4d723fd56e0efa2d1
524cbab02478eaa75a260ef916d1b212
5272e037c03e2d3de6d0bac7177223b3
528064ebc1097362623937b25b11d8fc
528b7437405994c6838c30c44c914b64
528f10361d1a722bec049304cf312ed4
528fceda00439df7c52515bf80e5e02f
52a18f6b7fa5260a3eeec38535543e6e
52aafae32b828fecb557115f2e829039
52af4f91349707a8300661a542890974
52b4afd0e46dfa524e8a867550161681
52b73d58aad2e061c625fcd3deb76ae7
52b8da3fd5ebf7a3bf8c04695e23db84
52bcf82574ea6577e2b0da1c3b0127d0
52bd99d774fdbc3f6afc44151af45302
52c1c3af33af1564325c94a7bdfc6072
52c57e631d7ce536fd0a0ba2d35c4962
52c878e42ed5687e9f90f2df52b71049
52c89d4b32e82019124c72dab357cf3e
52ce98463c23b4b181c2fc13b2fd20f0
52d0259d96b716ff3ffb426d9480e9fb
52e82d2819f5c74f54bec993032fe050
52eb32724ecafdc0900feb69ee08a7a8
52ed0501843c564188ca858e75829eed
52ee8d69c4fb0ed90c9489c6c17d7530
52f0900ca36b2e39ba97f28ddd650419
52f137423984e0ccd0a3e07ef5884646
52fe210662d2ce61d8f66cb1fddacd00
531f19c0ab304f4aaf0193088ff492eb
5323475d24d29959d5d66647279c812b
532b8da435c2ad541c5289aa0521886d
532e5cc3095ba022a946bb6f4ac326b1
5334b1702409154149d487d3d560de50
533d5428cdabcbc091b63cbb51b9f43a
533f5e60ec3d8667ba435d888fe1fd9f
53473899630a6eec03982ea23b7e4bec
5350635f095e508d32d11c68f429a68c
535431d022de44db24cfe8aba3f8c88e
5358586353372086df0a721b2f8c118a
535d15270bf20c7e8d18e131fca30ff9
535df9749e4fb4a2901456dd1bcc5f64
537cf17d6ee55f7e34292e283cfb87c0
5381c86aa1046967c8123509a9e546aa
5388c7354f3b1971e158dede17db32e9
53893eca31f62e860a82b820ae458588
53896c68146fba9f9f0ec3be65b28a5e
538b3b237eb7063c22087e9972f40c66
53950b7b31975fbea03bf916d3656cf9
53986f502358a9f2830b7eb8972b0de3
53c6fc8d29b446b32fcacd3dfcdea6dd
53da1345cc515523abea55a917d10b90
53daa6a085a42c1e909233fa2d6c110f
53dede4a0b440e65809e54056a5dd204
53e2f593172583bdd68f53ea19726a88
53e8da68565396a7c3e10d9d731169a0
53eab4fa2507ad3f826d6413b774c99e
53f2c6f24126e87dddf8be2efb6a4614
54003b4b6d394f26fc13ce69519a3ca7
540455f05b3712a5c2f00c354dfe64f4
541403d135fa7a3eb8f35f2b81767c94
5415e81bb4697033cdd1f3761d3294c1
5416ad507202de12a6dcf980cac0d1fd
54177b215f24ba1099f4dc93183ee21e
54183392eaece66d528ae7fe87205cf7
5426eadbfe05f9f9dbdfa60652a50f01
5431c0750bbefb8e0b9389c5d3db110a
5433c8b2583464070a9c1a812ee389c7
5433dedbcc5b03d8367f0047c28ba88e
5434c6eb651fc35daa65611775d9f6d3
544065fd758c832666b4b00e8b5db613
5441b7d745dad28d36d5b9e412f388e7
544cd4b6c883fe45d076b9e9d01b5f87
545fe973cdd66e7bf5453c21aaa850dd
54614be9a5484c21b128a4a4563787bd
546a4e0d32a43366006baf3fce36232f
546ec9c8410ddb84881361fc5dabcb78
546ef048267ea61bddabbf57f4570ac8
547454b211ad43a53484c98909f25e87
54782d122862a11ffe73110eb93e4f05
547a3d47214b1175920e7b72465cee91
547da17b0994db39f3a3436ae26c378a
5481dba38d81457fd8b54c2e7dffdc18
548864672ade78bb4ec802f366d307c7
548aa20104cff14bd08aba6748271f3c
548ba4f5ae6e4ed2cf38630bebb67333
54945802c0494296dc03b284cee77d54
549cf2cbbc2ff0879bbf562414d87ca6
549d59fc77e04df8ac63faa02d1dce73
54b255557b22b507fc6266a550912080
54b4d45e28ba7be919144a730cbb4a3b
54b53a5168706496c3e3463f83dd0061
54b7b965f552af24581fbc3c224edcb0
54bb2fc08f0861123e8975e4073cd7ed
54bf25f4b47bd9c104b5d3d526e7c4c1
54c79e3acfc808812bfbf3bb1800c94f
54d20eb3d9dd8644c1e20bec981420f4
54d878e55e146c082a5273021aa282f2
54d9587f422519a3c8a1bfa632e16e98
54dbcccedb9c8b7e1370c9ef4945ddef
54e533ddb94e05af6bb1657a25e05813
54ec7ddf4a6808a0b7dd795d4b939e37
54ee4f6844f89b3a6c6d49c4120e8442
54f48e6895b498a480cb89112f031031
54f4cf5096bc0399f74379a1232a22bf
54f78d5db0f19733b19f84e99befc95a
54fb9653cdfe72d28654a970bc02cfa5
54fc8da3866f226c1122c19a4d722541
5502926cb70e4b1a213079d4f4c0bddd
550d283886bfdec5ff3f9aa4e87a31cc
551f1111e525c4356b278cf804f2e21a
55253f977475f36f3464a78154864c98
55306bb40d3e70b4ad6c917e369a065f
5540a5284b41be61e71ff192a78dd1f6
55478d43cbfad5ff9c0c4a92c7e35009
554949e4fa7e8db7202311c459182613
5563339f1e6bafd0c030a0963a64101a
556351ba1477a152228a1db42c70dc9f
55716572765ddc25c53bf4b1729183da
557b70687cf5d33aa16589893bf24f1a
558f8fe7638e174bee98217018fa6665
5593ed65e504197cd6a06c5348d5f39c
5596dc245409d18e34ee317968a977d1
55981626607948846769429c57a1f6db
559a4567438ddc62d781524a87409b2f
55a3547bddc9ade070ab505549456f27
55a4982e84ddd21156ea1fcc188166ba
55a641d46bf09cccfc4089588559f295
55a6f3706d5f5351a54949aa0cb1f1de
55a8e0aa85bc7869be5c6826a628d19e
55b609d5fefbb9e8c680e0a4000a126b
55b6cd5a9cdeea9ceaca998d2846ac1e
55bc488d59c80031ba870e82e725e0cc
55bc8f129bda2e1b69ddb479b0b246c0
55c85b55d806759dd4e0c275f1102694
55ca4560e76ce5c178f78bceceb4bb1b
55dac663c641f7c0645a5492cb1a5b2d
55e79bf0482947819366b3fbafb66fab
55e7ee94ef152ad4e662becdde0b5775
55f25ec5c21737a173dd7d87f84329d4
55f83fb2156fb87120c037eecebd7324
55ff30acb63fff5ca962da2f005cb889
560503ea5852631bb9df366fdaed8c72
5605d0de43d75200ff9daf408c6dc527
560a821997565d187c58bebce3302ea7
560a953b3d0a68ca32152b132bf8c9a6
5612ac6468324d52f7814c4d94775174
561491be04d1992d6195d6828293b79c
561727002f0847ff97679857264ef471
5635dc48f8ffbad875db4e90a26550f7
563d65f40922dcea3845c9815416f386
56423f4b1b725d52826196e54b803201
564b520dc3b55cae91eaf04f6572089d
564c8ee0d2790dc5764926477d609b68
564de02733726c2bafb71b3b7e353019
565ab5739d51d581ddb1cbddd596f747
565bd230cbeb6013152c30923227599f
56636642ca2fd5c246273c625739bb11
5666a5ba7c32b5ec14c78437810166d6
568b55d64db8aa3e852282e0c470b63b
5698d175e45dbc68914d765299ef6a4f
569911aa1ea0342088e8c51d292ed827
5699e0899593c1e26cc93c761316d6b3
569a26e37762a5683dc99fedd695934a
56af964de33c268d993857c1da5328bd
56aff890cd658b46de5a2f6b165ddc92
56b09dfc58219bf93fb6d400b8aa58d3
56b0cd439772f5c6d5823c56598b79f2
56ba97eceaf7e35e5b28d52ed1535581
56c60473dd552eb7196ec5c1e50eced6
56cea439549283506634dec8379c75d8
56d7c960e6515c7a04a34276f169078b
56d8170a1df864c7ba921e5619b1eda7
56e334eb210e7858303d57b44f824d18
56e346203e05ebe0212135bfe3a21381
56e9840730f801e85cb2e18a19425d66
56ee36eef96fc84d4e86a057023dac21
56ef5045cf2f464ea26e07d5ca7b9cb9
56f0d1d2627b7569f1c26c92537e3074
5703d35be9fc029af7d43efa01a7b8c5
57094a2dbc33489e424805e4241995fb
570e316ddb679d8ae3a3cf8313c4a054
57184ee28d763e969d37bfeba187e724
5718a279c9e51aeaac4b87b322a7d774
571ba9bb134bf13e3af75f5e9a307696
571c049c4fa83ba63e9064b2e32ba015
57209129c8de2c553dbad2a574d6db95
5727253b9e0bb0d444b1d828bd805bfd
573
57319efa06ba31c755adea317a6290bd
5731fe6967fa65c3b73cb73d9b370a80
5745c2d596c37021468772d35dfdfe58
5751d8b8c3139484238f568a428d9b12
575adeee2238fe497210cb4f26969615
57621584079007007ee6d5a289eb6175
576f3b03ed6bfb41e5f7735bf020b90d
5771401dc9a451bb1e6a8e7a24546081
5787448c102bf4a12f212b6a0636b982
5788b5d68f75b9235cac419fa586b0f9
5789a303584a7c40ee2a65cc3238f904
5789df31567712d2373a3c46709735ce
5791a7ba24b101f79fa2dc7186f51145
579a0f5137e48bda48e125369b74e0a3
579e1c1999665a8dfbf02c8913d1675c
57a09319898887b505c9a400c94cc2df
57a0a1b5a9adaae79ac35f60cadfd883
57a645670a20e536efd1f73f5dbcf2e0
57af8fc64fd8243133d8b56b1f4fa5df
57bdf7ba928810eee06bbbc2fac14588
57d2d39538c91e04a1d4bd911d572655
57d2dabfb4f38c98ef9d3732c663124f
57ec2e551f19665a4044c306bd92a1d8
57f5aadf4f8fa04ecffe26a8f77e7ce9
57fa716f4e2d36bfd545425107656a1e
57fdd0db7dd3445c6d01a863e39075f1
581089b919249700cd5f3f2cb14245c3
581267e5b1a72e98efcd20473bab90b6
5814ed57f25804b1f73be9120f947e94
5819f7536f72223a62031237f8da30eb
581ea3e845d6a87df5303ed69ea97ba3
5826528a3d60d1fe7c7bebd3d2195570
582c711b4dba7e82ee0a653c8c4a46a8
582c7998dc9be5c36c096642134dd726
582f2880fa263bc9bb9b5d12f56b9681
5834608d4241c312fc6664842ccc9cae
584132cd3af2112caeeafb3109921410
5844ff3b9291bf08216ce092c55ef4b8
584b097131b58acf52e86b7899856e11
585996315a1fd3fdc60f5de587d69f3d
585cd84c86c3bd42935a5040a08b1b56
586226ca6c6ba1006a510921d4deebe9
586399880b5e7430569c3e0f6e9c2024
586515ca92c8c8b6cab0541be0b44985
586dea515a4aca57f9d14b03f93441b4
58712305b1a2a7b84fe983f5c93e4fd8
587a209c96e49b6a9b7569a7a8d882d6
5899d20847ef16f9be32e3cbc90cc4a2
589e18686f70169ee92d6f62178f784e
589eb1a2068af0ef0e44d908709b84d7
58b660d2356920aefe62eece181e349c
58c43adc6c7d5c630faf6b1921bce63f
58c55a7c484870362a3dd521875091e6
58c9d89322fe618a57640abca154c728
58d952a2bf3a91d821b9a3778baef90a
58d9cd9e8b4bab680af4c3ae3121bd94
58e1296022ec0558951a4f909b8ff225
58e72f40042f6ce5f8b5bae22dd8d077
58ebdab6b903bb826576a8175dd6db63
58ee903c282f756816dda2a4c1d53899
58efa45b314a32e92c5eb0036e9ad942
58f54617a46cc2c846b89f71cead8a28
58f6692d97d3d3f86727357d4c1a108d
58f7f981d3a6db8511b33a26380e9c8c
590495f2aa9896340262d7b4dac06ffc
590e4859af953cb7c16770186e5ad2cc
5916d52f6d423b6dfa707376d2627840
591cae4cc03f3fe4cde8c898251080b3
592ee7a8f2aa02e01e9ac8a6e9ed73c4
5935c0e938e2cef31657bb9f32fe8d12
5939066dc1de5d4a07cae4d1896b8401
593f8953bd9403f1d7d6d997c03384ee
593feb66de4964250994b5870572b3e5
5944ba2cd5b2331a71eb92e1cb2d828d
5945680f8472b52e2265b30ff787ab6e
59482769f5ffb30be9239646f8bbceb9
594c4f781bd3174f98714f5677518170
595e4e3e381e2d676df856bf9ca809d5
59605bfacaae28282ab32e761030c5d8
5961d8d7fd66e23227c98eca6039d5cd
5968372205be00909b2256f319238ad3
596dc0a46c01e939a72bc57ccbef5433
5973a3c8c1fc1e38497c7d7fd48473bd
5979e360480164aa886acd917196f45c
597a3818f9df4698a66de9958dabd62b
5989822dfd8ac8030581063754a3d7f1
5991472c28bed6611b641d35b8a8910c
5993439ed5897f70c974193b78215329
5999748be149abd6adb6fffe4df8c18a
59a0e36f2a3b295133f3da19bc2f6cdb
59a3eb9c986c45d3c9a5f1b824043288
59bdc5cbf367ebf356ee229c972c861e
59c75c97c8988cc60c3ffeda9ec0b2d1
59dfbd40b9e1c0cb5bcb14b3868dc8ea
59e45b7da61786bfd14f1529c0eade13
59f8f219aabaa876bf3c626dd3289018
59fb65baed4e200d7e488ae2ddd50773
59fcf9bcf78e69239eeb6f432a0af970
5a03f1eb590375f975a280feaacb4859
5a06e0c72e3bee14945c8bb61ccf230d
5a16db6ce1335ab87e8f77d15c4239dc
5a18dace3404e8e2042297e29ea77b02
5a1ee7bd953e917fececd04a83c3cb8d
5a253476370f611027f0d11c82a92146
5a2834557bdb4a538022217132a75187
5a29f7375cb8834e952ce224eccf4ec7
5a2ff536df4e207aaf23a682099d0b12
5a3512184ea1e9a326ea97323358bf35
5a379b5867e0b36ec70872eaf6465e15
5a38915e63fc282117d2915eb9ffa9f4
5a4bb34717b3d6e5fab0943d1fd38b6f
5a4dea99bc6a4b47a4d269b6192b3ae7
5a5ac84871b9ec7b77fc90238d754863
5a5c47d77d212179abe5a1b6c11eee0b
5a6605e6b8808fe59633c9aa80268d75
5a68253ba87395d3e556dfd62da9d496
5a6ad9ce95ea8061571c941a26a836da
5a6d1b827502464c6dc901a6652bda9b
5a6ff18a8fd8ed867e41508b68345dcf
5a72796b23591043035729b84825aa7f
5a7474ec0d0517bb1c4de048c58f0cb8
5a79a80540a44e45dca60897f7538895
5a7d009cdb8311af4b945ad85e05e726
5a7dffc22c8232e766fdbdf8196e097d
5a842e86ec5c297dc668b0b0904389a0
5a896a3b89ee90a5067bc585e1533e2e
5a8edfa497b1248619561ec5b0c05c29
5a934b26eb42f1e60e58d535bdc0a714
5a960676f6d320c3e069461f944d0939
5aa62ced2e86bcdb5a5548263c7f92a4
5aaa7c8393acedbcb68c4af2a46dbbe0
5ab8bfccddb8770b6d2b66d9df1bf2b6
5ab8ec891832cb27c5b8a7fd40fdb1f3
5abaaf2d5a5142b9beb161128bbf4e76
5ac4de32ab971ffbf1f4155ef00a6d1b
5ad1b0b9779bb59076c4ff6ec6a885b3
5ad6b20493bcb4235d805c1ae8947731
5ad841d5b0d6dd44e2494160dc71335d
5ae4e0880d0e6e6a69bd4b27a292b056
5ae7b0a102c6fb3f467ec49ae56e7605
5ae921f776087d6a3e251bf9e74ec760
5af1452b9fa07894397dd618dc51738e
5af5b82053a6b6516cea12aa54e8b93a
5b223396eccbc39189a23f4d50ff7287
5b305b464e17c89e5212368bb2999906
5b3219a0837986ffc7bc1f232906c07d
5b36199f0253ef99080ccbccb556a3cc
5b38672f313776e2b2f27025349336ca
5b4c9de7176918232ac64f5e82a3eabf
5b521c25a9d6a724902433a615579966
5b53feb25d2fc799336d8d502f3d3f27
5b6096ab56cb11a0ce1d452226a4b75a
5b656023f2a2bba225251d97b44b8efe
5b6d2222643401fca4f666d3bd550051
5b72419219e059111b1c2dd94020a29e
5b84f463702b4d84e97fe87ad40c8684
5b8557e21a1b115055a6e6cdda6ec14a
5b922d3e69fdd62bdd364afa666c0f48
5b92535c0a6dc5ec5c90968cf9665f01
5b9414944b8d25050a7d3389828a456e
5b949d967e0cf287fe998103680c0c38
5b954188886ac652df42e20751bfae47
5b96461146ff330afe45200327e23038
5b9670b90c33a522c4f7dc1f876b3833
5b9ca6aca8f9c0a9aa099f4646c2e354
5ba4702f8be0c915bf0093abe0c878b0
5bacfaf8afbf0e3a1669b97d810cac49
5badc81a529c45bfa84eb870aae71b35
5bb6b64c84de79b051bfd592453f5be3
5bbbadb4e1e1188f3e0e3848a4a71850
5bd6740433cd6ba4eb2d889f55a3add7
5bd706dd046ec3a88b9f4c75c296592f
5bd7bbb9970c9521b5d9555d82d6abb6
5bdaf717e01b448fe3501d180aa79da2
5bdf9a03014626a68e9c9cf5a4efa149
5be90e840ca7a0e0925f0b13262ab77e
5bf0813f666550d8a3634e2cc1f8e6ff
5bf0fd7486130ede3ad835a8e26824ca
5c074e172d464388d393ef323a3dbc58
5c0f699760d5e481f05a7b8dc1be8d0d
5c175594ebb508435a23d853bc9c6b7d
5c191cd84680790180ef64efc64de4f5
5c1ffd5e5f36643f2cfc87523cb3c9dd
5c277a835beaaef8e4fdef8f231d6ce0
5c2dc0b00cd39cd2da57d4ca1a27ccad
5c34203498cb6d4ed309ea8d86ba92a9
5c3474487b159f690a5cee16a47503fd
5c349810239567cd5b4131257a935a9c
5c379212e90212663106b66f0581fc58
5c3a9575075ce2053fdbf9359fd0b434
5c3cf37d92ec034c20bf30bd4a924efd
5c3f681226917a4b7ff8a193daebc2d4
5c426c063438b058effe3242772ace27
5c4358a9889bf627b32fd1da943e042a
5c46036931828de4ff7be441a10b44e8
5c49cc7f342877160e94988eb84ff249
5c4f5889b2435a0808f0b53dea03fb6a
5c50d5523d5fce8a4a163e8b4b888222
5c58c2d648f491b9f9d9563334c7d241
[...]
